TRT-8502-EntropyCalibration2
images: 3bf42bfc
/model.0/conv/Conv_output_0: 3d5e4e48
/model.0/act/Sigmoid_output_0: 3c010a14
/model.0/act/Mul_output_0: 3d6dcc27
/model.1/conv/Conv_output_0: 3e9c25b8
/model.1/act/Sigmoid_output_0: 3c010a14
/model.1/act/Mul_output_0: 3ec772a6
/model.2/cv1/conv/Conv_output_0: 3e6f2028
/model.2/cv1/act/Sigmoid_output_0: 3c010a14
/model.2/cv1/act/Mul_output_0: 3def9d00
/model.2/Split_output_0: 3df312cb
/model.2/Split_output_1: 3e05cd88
/model.2/m.0/cv1/conv/Conv_output_0: 3d41f423
/model.2/m.0/cv1/act/Sigmoid_output_0: 3be2bcbc
/model.2/m.0/cv1/act/Mul_output_0: 3c07553f
/model.2/m.0/cv2/conv/Conv_output_0: 3da850ca
/model.2/m.0/cv2/act/Sigmoid_output_0: 3c010a14
/model.2/m.0/cv2/act/Mul_output_0: 3dc41dc8
/model.2/m.0/Add_output_0: 3e2d11d0
/model.2/Concat_output_0: 3e1f9917
/model.2/cv2/conv/Conv_output_0: 3e9b49b0
/model.2/cv2/act/Sigmoid_output_0: 3c010a14
/model.2/cv2/act/Mul_output_0: 3d5a1a4d
/model.3/conv/Conv_output_0: 3d8d5b56
/model.3/act/Sigmoid_output_0: 3c011223
/model.3/act/Mul_output_0: 3d1b3405
/model.4/cv1/conv/Conv_output_0: 3d80f9dd
/model.4/cv1/act/Sigmoid_output_0: 3c005d9a
/model.4/cv1/act/Mul_output_0: 3d12095b
/model.4/Split_output_0: 3cd47026
/model.4/Split_output_1: 3c534d7d
/model.4/m.0/cv1/conv/Conv_output_0: 3cbf7b7f
/model.4/m.0/cv1/act/Sigmoid_output_0: 3bf5effa
/model.4/m.0/cv1/act/Mul_output_0: 3ca45c98
/model.4/m.0/cv2/conv/Conv_output_0: 3d5168c2
/model.4/m.0/cv2/act/Sigmoid_output_0: 3c094bfc
/model.4/m.0/cv2/act/Mul_output_0: 3d24dd7b
/model.4/m.0/Add_output_0: 3d6a873b
/model.4/Concat_output_0: 3d41b387
/model.4/cv2/conv/Conv_output_0: 3d85c364
/model.4/cv2/act/Sigmoid_output_0: 3c097e0c
/model.4/cv2/act/Mul_output_0: 3c52d4ef
/model.5/conv/Conv_output_0: 3d76ec3b
/model.5/act/Sigmoid_output_0: 3c05b7cd
/model.5/act/Mul_output_0: 3cbfc4cd
/model.6/cv1/conv/Conv_output_0: 3db481cc
/model.6/cv1/act/Sigmoid_output_0: 3c05da16
/model.6/cv1/act/Mul_output_0: 3ce8ead5
/model.6/Split_output_0: 3d01e11f
/model.6/Split_output_1: 3ce8ead5
/model.6/m.0/cv1/conv/Conv_output_0: 3ceecaef
/model.6/m.0/cv1/act/Sigmoid_output_0: 3bfd0c81
/model.6/m.0/cv1/act/Mul_output_0: 3cc065c5
/model.6/m.0/m/m.0/cv1/conv/Conv_output_0: 3d4390d9
/model.6/m.0/m/m.0/cv1/act/Sigmoid_output_0: 3c066edf
/model.6/m.0/m/m.0/cv1/act/Mul_output_0: 3c8fe8c5
/model.6/m.0/m/m.0/cv2/conv/Conv_output_0: 3d5a7f3f
/model.6/m.0/m/m.0/cv2/act/Sigmoid_output_0: 3c016046
/model.6/m.0/m/m.0/cv2/act/Mul_output_0: 3ce66f65
/model.6/m.0/m/m.0/Add_output_0: 3d43a0af
/model.6/m.0/m/m.1/cv1/conv/Conv_output_0: 3d5501e6
/model.6/m.0/m/m.1/cv1/act/Sigmoid_output_0: 3bffa97f
/model.6/m.0/m/m.1/cv1/act/Mul_output_0: 3cc17950
/model.6/m.0/m/m.1/cv2/conv/Conv_output_0: 3d9e8361
/model.6/m.0/m/m.1/cv2/act/Sigmoid_output_0: 3c020f27
/model.6/m.0/m/m.1/cv2/act/Mul_output_0: 3d698a99
/model.6/m.0/m/m.1/Add_output_0: 3dd14b39
/model.6/m.0/cv2/conv/Conv_output_0: 3d9d4764
/model.6/m.0/cv2/act/Sigmoid_output_0: 3c052743
/model.6/m.0/cv2/act/Mul_output_0: 3d12d868
/model.6/m.0/Concat_output_0: 3d6769a9
/model.6/m.0/cv3/conv/Conv_output_0: 3dac76da
/model.6/m.0/cv3/act/Sigmoid_output_0: 3c00f741
/model.6/m.0/cv3/act/Mul_output_0: 3d029de2
/model.6/Concat_output_0: 3ce8ead5
/model.6/cv2/conv/Conv_output_0: 3d92cb8d
/model.6/cv2/act/Sigmoid_output_0: 3c01b71c
/model.6/cv2/act/Mul_output_0: 3c9b475a
/model.7/conv/Conv_output_0: 3da786eb
/model.7/act/Sigmoid_output_0: 3c06e5e7
/model.7/act/Mul_output_0: 3cd7774c
/model.8/cv1/conv/Conv_output_0: 3dca93f1
/model.8/cv1/act/Sigmoid_output_0: 3c041469
/model.8/cv1/act/Mul_output_0: 3cd298e8
/model.8/Split_output_0: 3cd2048c
/model.8/Split_output_1: 3cd298e8
/model.8/m.0/cv1/conv/Conv_output_0: 3d7f6dde
/model.8/m.0/cv1/act/Sigmoid_output_0: 3c012f5f
/model.8/m.0/cv1/act/Mul_output_0: 3ca69de5
/model.8/m.0/m/m.0/cv1/conv/Conv_output_0: 3dbb724b
/model.8/m.0/m/m.0/cv1/act/Sigmoid_output_0: 3c020145
/model.8/m.0/m/m.0/cv1/act/Mul_output_0: 3d03e878
/model.8/m.0/m/m.0/cv2/conv/Conv_output_0: 3db40cd4
/model.8/m.0/m/m.0/cv2/act/Sigmoid_output_0: 3c017844
/model.8/m.0/m/m.0/cv2/act/Mul_output_0: 3d296082
/model.8/m.0/m/m.0/Add_output_0: 3dc0b848
/model.8/m.0/m/m.1/cv1/conv/Conv_output_0: 3da92568
/model.8/m.0/m/m.1/cv1/act/Sigmoid_output_0: 3c06e700
/model.8/m.0/m/m.1/cv1/act/Mul_output_0: 3d030c0e
/model.8/m.0/m/m.1/cv2/conv/Conv_output_0: 3de07d7c
/model.8/m.0/m/m.1/cv2/act/Sigmoid_output_0: 3c0415c7
/model.8/m.0/m/m.1/cv2/act/Mul_output_0: 3d8ff60e
/model.8/m.0/m/m.1/Add_output_0: 3deb83a2
/model.8/m.0/cv2/conv/Conv_output_0: 3dd9f4ff
/model.8/m.0/cv2/act/Sigmoid_output_0: 3c053658
/model.8/m.0/cv2/act/Mul_output_0: 3d009504
/model.8/m.0/Concat_output_0: 3d984ddc
/model.8/m.0/cv3/conv/Conv_output_0: 3dcd7daf
/model.8/m.0/cv3/act/Sigmoid_output_0: 3c074776
/model.8/m.0/cv3/act/Mul_output_0: 3cd1b656
/model.8/Concat_output_0: 3cd298e8
/model.8/cv2/conv/Conv_output_0: 3de27f77
/model.8/cv2/act/Sigmoid_output_0: 3c020852
/model.8/cv2/act/Mul_output_0: 3d12f319
/model.9/cv1/conv/Conv_output_0: 3d8e57a9
/model.9/cv1/act/Sigmoid_output_0: 3c004f61
/model.9/cv1/act/Mul_output_0: 3d90338c
/model.9/m/MaxPool_output_0: 3d90338c
/model.9/m_1/MaxPool_output_0: 3d90338c
/model.9/m_2/MaxPool_output_0: 3d90338c
/model.9/Concat_output_0: 3dac0be8
/model.9/cv2/conv/Conv_output_0: 3daa165a
/model.9/cv2/act/Sigmoid_output_0: 3c01e2e2
/model.9/cv2/act/Mul_output_0: 3c9009a3
/model.10/cv1/conv/Conv_output_0: 3dc5d5d6
/model.10/cv1/act/Sigmoid_output_0: 3c0b92e4
/model.10/cv1/act/Mul_output_0: 3d4880fb
/model.10/Split_output_0: 3d4880fb
/model.10/Split_output_1: 3d2802e3
/model.10/m/m.0/attn/qkv/conv/Conv_output_0: 3d865534
/model.10/m/m.0/attn/Reshape_output_0: 3d865534
/model.10/m/m.0/attn/Split_output_0: 3d1b85ba
/model.10/m/m.0/attn/Split_output_1: 3d99329d
/model.10/m/m.0/attn/Split_output_2: 3d845316
/model.10/m/m.0/attn/Transpose_output_0: 3d1b85ba
/model.10/m/m.0/attn/MatMul_output_0: 3f76e683
(Unnamed Layer* 205) [Shuffle]_output: 3ab67d3d
/model.10/m/m.0/attn/Mul_1_output_0: 3e2e95c1
(Unnamed Layer* 207) [Softmax]_output: 3a83cd2a
/model.10/m/m.0/attn/Transpose_1_output_0: 3a83cd2a
/model.10/m/m.0/attn/MatMul_1_output_0: 3d73a560
/model.10/m/m.0/attn/Reshape_1_output_0: 3d73a560
/model.10/m/m.0/attn/Reshape_2_output_0: 3d845316
/model.10/m/m.0/attn/pe/conv/Conv_output_0: 3d51cf82
/model.10/m/m.0/attn/Add_output_0: 3d5286d2
/model.10/m/m.0/attn/proj/conv/Conv_output_0: 3d2c2994
/model.10/m/m.0/Add_output_0: 3d843dd9
/model.10/m/m.0/ffn/ffn.0/conv/Conv_output_0: 3d7a9634
/model.10/m/m.0/ffn/ffn.0/act/Sigmoid_output_0: 3c00616f
/model.10/m/m.0/ffn/ffn.0/act/Mul_output_0: 3c198ede
/model.10/m/m.0/ffn/ffn.1/conv/Conv_output_0: 3d484462
/model.10/m/m.0/Add_1_output_0: 3d98f1f3
/model.10/Concat_output_0: 3d479049
/model.10/cv2/conv/Conv_output_0: 3da88575
/model.10/cv2/act/Sigmoid_output_0: 3c036278
/model.10/cv2/act/Mul_output_0: 3c912a73
/model.11/Resize_output_0: 3c912a73
/model.12/Concat_output_0: 3c9b475a
/model.13/cv1/conv/Conv_output_0: 3d93aab6
/model.13/cv1/act/Sigmoid_output_0: 3c02e8e6
/model.13/cv1/act/Mul_output_0: 3cb438a4
/model.13/Split_output_0: 3cea620b
/model.13/Split_output_1: 3c740f85
/model.13/m.0/cv1/conv/Conv_output_0: 3d6856d3
/model.13/m.0/cv1/act/Sigmoid_output_0: 3c03f08f
/model.13/m.0/cv1/act/Mul_output_0: 3cb1d35d
/model.13/m.0/cv2/conv/Conv_output_0: 3db86e29
/model.13/m.0/cv2/act/Sigmoid_output_0: 3c03044e
/model.13/m.0/cv2/act/Mul_output_0: 3d00f3c3
/model.13/m.0/Add_output_0: 3d7cf06e
/model.13/Concat_output_0: 3d01dfac
/model.13/cv2/conv/Conv_output_0: 3d7fbea0
/model.13/cv2/act/Sigmoid_output_0: 3c00463a
/model.13/cv2/act/Mul_output_0: 3c9b65aa
/model.14/Resize_output_0: 3c9b65aa
/model.15/Concat_output_0: 3c52d4ef
/model.16/cv1/conv/Conv_output_0: 3d5e431a
/model.16/cv1/act/Sigmoid_output_0: 3bf9edb3
/model.16/cv1/act/Mul_output_0: 3c9a3977
/model.16/Split_output_0: 3cb1d20c
/model.16/Split_output_1: 3c9048c7
/model.16/m.0/cv1/conv/Conv_output_0: 3d229f93
/model.16/m.0/cv1/act/Sigmoid_output_0: 3c03a2f9
/model.16/m.0/cv1/act/Mul_output_0: 3cd0f909
/model.16/m.0/cv2/conv/Conv_output_0: 3d813827
/model.16/m.0/cv2/act/Sigmoid_output_0: 3c00fb60
/model.16/m.0/cv2/act/Mul_output_0: 3d012826
/model.16/m.0/Add_output_0: 3d51d8f3
/model.16/Concat_output_0: 3ce71e1e
/model.16/cv2/conv/Conv_output_0: 3d8357a6
/model.16/cv2/act/Sigmoid_output_0: 3c009a6b
/model.16/cv2/act/Mul_output_0: 3ce9770f
/model.17/conv/Conv_output_0: 3d7e2485
/model.17/act/Sigmoid_output_0: 3c0aa8dc
/model.17/act/Mul_output_0: 3c8ff22b
/model.18/Concat_output_0: 3c409867
/model.19/cv1/conv/Conv_output_0: 3da12acd
/model.19/cv1/act/Sigmoid_output_0: 3c052f8b
/model.19/cv1/act/Mul_output_0: 3cb3a27a
/model.19/Split_output_0: 3d121063
/model.19/Split_output_1: 3c726c2f
/model.19/m.0/cv1/conv/Conv_output_0: 3d9f02b9
/model.19/m.0/cv1/act/Sigmoid_output_0: 3c0eca5c
/model.19/m.0/cv1/act/Mul_output_0: 3cc201fd
/model.19/m.0/cv2/conv/Conv_output_0: 3db68682
/model.19/m.0/cv2/act/Sigmoid_output_0: 3c047517
/model.19/m.0/cv2/act/Mul_output_0: 3d024ab1
/model.19/m.0/Add_output_0: 3d8e395f
/model.19/Concat_output_0: 3d023a46
/model.19/cv2/conv/Conv_output_0: 3dadff3e
/model.19/cv2/act/Sigmoid_output_0: 3c03082c
/model.19/cv2/act/Mul_output_0: 3cb297bd
/model.20/conv/Conv_output_0: 3da1a3c6
/model.20/act/Sigmoid_output_0: 3c01488f
/model.20/act/Mul_output_0: 3ce9c243
/model.21/Concat_output_0: 3cd55d90
/model.22/cv1/conv/Conv_output_0: 3db6f7f7
/model.22/cv1/act/Sigmoid_output_0: 3c05d4a8
/model.22/cv1/act/Mul_output_0: 3d0117ad
/model.22/Split_output_0: 3cc13ce2
/model.22/Split_output_1: 3ce645fd
/model.22/m.0/cv1/conv/Conv_output_0: 3d3332fd
/model.22/m.0/cv1/act/Sigmoid_output_0: 3c0154bc
/model.22/m.0/cv1/act/Mul_output_0: 3c5314d1
/model.22/m.0/m/m.0/cv1/conv/Conv_output_0: 3dc3f2b6
/model.22/m.0/m/m.0/cv1/act/Sigmoid_output_0: 3c01eebb
/model.22/m.0/m/m.0/cv1/act/Mul_output_0: 3cc2e2ae
/model.22/m.0/m/m.0/cv2/conv/Conv_output_0: 3dc2255e
/model.22/m.0/m/m.0/cv2/act/Sigmoid_output_0: 3c01c1df
/model.22/m.0/m/m.0/cv2/act/Mul_output_0: 3ceb5946
/model.22/m.0/m/m.0/Add_output_0: 3d908f4b
/model.22/m.0/m/m.1/cv1/conv/Conv_output_0: 3dad5da6
/model.22/m.0/m/m.1/cv1/act/Sigmoid_output_0: 3c01803e
/model.22/m.0/m/m.1/cv1/act/Mul_output_0: 3c929c45
/model.22/m.0/m/m.1/cv2/conv/Conv_output_0: 3de9198e
/model.22/m.0/m/m.1/cv2/act/Sigmoid_output_0: 3c087f0a
/model.22/m.0/m/m.1/cv2/act/Mul_output_0: 3d9232fa
/model.22/m.0/m/m.1/Add_output_0: 3dee7d55
/model.22/m.0/cv2/conv/Conv_output_0: 3dbd552f
/model.22/m.0/cv2/act/Sigmoid_output_0: 3c02aba4
/model.22/m.0/cv2/act/Mul_output_0: 3d27a0eb
/model.22/m.0/Concat_output_0: 3d957114
/model.22/m.0/cv3/conv/Conv_output_0: 3dd61938
/model.22/m.0/cv3/act/Sigmoid_output_0: 3c017986
/model.22/m.0/cv3/act/Mul_output_0: 3ce88ffd
/model.22/Concat_output_0: 3d0117ad
/model.22/cv2/conv/Conv_output_0: 3dd365d8
/model.22/cv2/act/Sigmoid_output_0: 3c021404
/model.22/cv2/act/Mul_output_0: 3d2a8e82
/model.23/cv2.0/cv2.0.0/conv/Conv_output_0: 3d9b3716
/model.23/cv2.0/cv2.0.0/act/Sigmoid_output_0: 3bfe1ee5
/model.23/cv2.0/cv2.0.0/act/Mul_output_0: 3c9168c6
/model.23/cv2.0/cv2.0.1/conv/Conv_output_0: 3e69d9d7
/model.23/cv2.0/cv2.0.1/act/Sigmoid_output_0: 3c010a14
/model.23/cv2.0/cv2.0.1/act/Mul_output_0: 3e13bafa
/model.23/cv2.0/cv2.0.2/Conv_output_0: 3e069cbf
/model.23/cv3.0/cv3.0.0/cv3.0.0.0/conv/Conv_output_0: 3d404883
/model.23/cv3.0/cv3.0.0/cv3.0.0.0/act/Sigmoid_output_0: 3c014a5c
/model.23/cv3.0/cv3.0.0/cv3.0.0.0/act/Mul_output_0: 3d42237d
/model.23/cv3.0/cv3.0.0/cv3.0.0.1/conv/Conv_output_0: 7f800000
/model.23/cv3.0/cv3.0.0/cv3.0.0.1/act/Sigmoid_output_0: 0
/model.23/cv3.0/cv3.0.0/cv3.0.0.1/act/Mul_output_0: 0
/model.23/cv3.0/cv3.0.1/cv3.0.1.0/conv/Conv_output_0: 7f800000
/model.23/cv3.0/cv3.0.1/cv3.0.1.0/act/Sigmoid_output_0: 0
/model.23/cv3.0/cv3.0.1/cv3.0.1.0/act/Mul_output_0: 0
/model.23/cv3.0/cv3.0.1/cv3.0.1.1/conv/Conv_output_0: 7f800000
/model.23/cv3.0/cv3.0.1/cv3.0.1.1/act/Sigmoid_output_0: 0
/model.23/cv3.0/cv3.0.1/cv3.0.1.1/act/Mul_output_0: 0
/model.23/cv3.0/cv3.0.2/Conv_output_0: 7f800000
/model.23/Concat_output_0: 7f800000
/model.23/cv2.1/cv2.1.0/conv/Conv_output_0: 3e100d28
/model.23/cv2.1/cv2.1.0/act/Sigmoid_output_0: 3c0111ff
/model.23/cv2.1/cv2.1.0/act/Mul_output_0: 3d2a608d
/model.23/cv2.1/cv2.1.1/conv/Conv_output_0: 3e4309c7
/model.23/cv2.1/cv2.1.1/act/Sigmoid_output_0: 3c010a14
/model.23/cv2.1/cv2.1.1/act/Mul_output_0: 3dccb7a0
/model.23/cv2.1/cv2.1.2/Conv_output_0: 3df208ed
/model.23/cv3.1/cv3.1.0/cv3.1.0.0/conv/Conv_output_0: 3d9e7dfc
/model.23/cv3.1/cv3.1.0/cv3.1.0.0/act/Sigmoid_output_0: 3c01d03e
/model.23/cv3.1/cv3.1.0/cv3.1.0.0/act/Mul_output_0: 3d3f55a0
/model.23/cv3.1/cv3.1.0/cv3.1.0.1/conv/Conv_output_0: 7f800000
/model.23/cv3.1/cv3.1.0/cv3.1.0.1/act/Sigmoid_output_0: 0
/model.23/cv3.1/cv3.1.0/cv3.1.0.1/act/Mul_output_0: 0
/model.23/cv3.1/cv3.1.1/cv3.1.1.0/conv/Conv_output_0: 7f800000
/model.23/cv3.1/cv3.1.1/cv3.1.1.0/act/Sigmoid_output_0: 0
/model.23/cv3.1/cv3.1.1/cv3.1.1.0/act/Mul_output_0: 0
/model.23/cv3.1/cv3.1.1/cv3.1.1.1/conv/Conv_output_0: 7f800000
/model.23/cv3.1/cv3.1.1/cv3.1.1.1/act/Sigmoid_output_0: 0
/model.23/cv3.1/cv3.1.1/cv3.1.1.1/act/Mul_output_0: 0
/model.23/cv3.1/cv3.1.2/Conv_output_0: 7f800000
/model.23/Concat_1_output_0: 7f800000
/model.23/cv2.2/cv2.2.0/conv/Conv_output_0: 3dd83a69
/model.23/cv2.2/cv2.2.0/act/Sigmoid_output_0: 3c05694d
/model.23/cv2.2/cv2.2.0/act/Mul_output_0: 3d2514ef
/model.23/cv2.2/cv2.2.1/conv/Conv_output_0: 3e239624
/model.23/cv2.2/cv2.2.1/act/Sigmoid_output_0: 3c021421
/model.23/cv2.2/cv2.2.1/act/Mul_output_0: 3dc5fb65
/model.23/cv2.2/cv2.2.2/Conv_output_0: 3de9311b
/model.23/cv3.2/cv3.2.0/cv3.2.0.0/conv/Conv_output_0: 3d7f27dd
/model.23/cv3.2/cv3.2.0/cv3.2.0.0/act/Sigmoid_output_0: 3c04749d
/model.23/cv3.2/cv3.2.0/cv3.2.0.0/act/Mul_output_0: 3d3d6087
/model.23/cv3.2/cv3.2.0/cv3.2.0.1/conv/Conv_output_0: 7f800000
/model.23/cv3.2/cv3.2.0/cv3.2.0.1/act/Sigmoid_output_0: 0
/model.23/cv3.2/cv3.2.0/cv3.2.0.1/act/Mul_output_0: 0
/model.23/cv3.2/cv3.2.1/cv3.2.1.0/conv/Conv_output_0: 7f800000
/model.23/cv3.2/cv3.2.1/cv3.2.1.0/act/Sigmoid_output_0: 0
/model.23/cv3.2/cv3.2.1/cv3.2.1.0/act/Mul_output_0: 0
/model.23/cv3.2/cv3.2.1/cv3.2.1.1/conv/Conv_output_0: 7f800000
/model.23/cv3.2/cv3.2.1/cv3.2.1.1/act/Sigmoid_output_0: 0
/model.23/cv3.2/cv3.2.1/cv3.2.1.1/act/Mul_output_0: 0
/model.23/cv3.2/cv3.2.2/Conv_output_0: 7f800000
/model.23/Concat_2_output_0: 7f800000
/model.23/Reshape_output_0: 7f800000
/model.23/Reshape_1_output_0: 7f800000
/model.23/Reshape_2_output_0: 7f800000
/model.23/Concat_6_output_0: 7f800000
(Unnamed Layer* 444) [Constant]_output: 3e810a14
/model.23/Split_output_0: 3d810a14
/model.23/Split_output_1: 3e010a14
/model.23/Split_output_2: 3e810a14
/model.23/Range_output_0: 3f1f4871
(Unnamed Layer* 468) [Shuffle]_output: 3c010a14
(Unnamed Layer* 470) [Shuffle]_output: 3b810a14
/model.23/Add_output_0: 3f204a85
/model.23/Range_1_output_0: 3f1f4871
(Unnamed Layer* 483) [Shuffle]_output: 3c010a14
(Unnamed Layer* 485) [Shuffle]_output: 3b810a14
/model.23/Add_1_output_0: 3f204a85
/model.23/Reshape_5_output_0: 3f204a85
/model.23/Expand_output_0: 3f204a85
/model.23/Reshape_6_output_0: 3f204a85
/model.23/Expand_1_output_0: 3f204a85
/model.23/Unsqueeze_3_output_0: 3f204a85
/model.23/Unsqueeze_4_output_0: 3f204a85
/model.23/Concat_10_output_0: 3f204a85
/model.23/Reshape_7_output_0: 3f204a85
(Unnamed Layer* 536) [Constant]_output: 0
(Unnamed Layer* 537) [Shuffle]_output: 0
/model.23/ConstantOfShape_output_0: 0
(Unnamed Layer* 540) [Shuffle]_output: 3d810a14
/model.23/Add_2_output_0: 3d810a14
/model.23/Range_2_output_0: 3e9d4449
(Unnamed Layer* 559) [Shuffle]_output: 3c010a14
(Unnamed Layer* 561) [Shuffle]_output: 3b810a14
/model.23/Add_3_output_0: 3e9f4871
/model.23/Range_3_output_0: 3e9d4449
(Unnamed Layer* 574) [Shuffle]_output: 3c010a14
(Unnamed Layer* 576) [Shuffle]_output: 3b810a14
/model.23/Add_4_output_0: 3e9f4871
/model.23/Reshape_10_output_0: 3e9f4871
/model.23/Expand_2_output_0: 3e9f4871
/model.23/Reshape_11_output_0: 3e9f4871
/model.23/Expand_3_output_0: 3e9f4871
/model.23/Unsqueeze_6_output_0: 3e9f4871
/model.23/Unsqueeze_7_output_0: 3e9f4871
/model.23/Concat_15_output_0: 3e9f4871
/model.23/Reshape_12_output_0: 3e9f4871
(Unnamed Layer* 627) [Constant]_output: 0
(Unnamed Layer* 628) [Shuffle]_output: 0
/model.23/ConstantOfShape_1_output_0: 0
(Unnamed Layer* 631) [Shuffle]_output: 3e010a14
/model.23/Add_5_output_0: 3e010a14
/model.23/Range_4_output_0: 3e193bf8
(Unnamed Layer* 650) [Shuffle]_output: 3c010a14
(Unnamed Layer* 652) [Shuffle]_output: 3b810a14
/model.23/Add_6_output_0: 3e1d4449
/model.23/Range_5_output_0: 3e193bf8
(Unnamed Layer* 665) [Shuffle]_output: 3c010a14
(Unnamed Layer* 667) [Shuffle]_output: 3b810a14
/model.23/Add_7_output_0: 3e1d4449
/model.23/Reshape_15_output_0: 3e1d4449
/model.23/Expand_4_output_0: 3e1d4449
/model.23/Reshape_16_output_0: 3e1d4449
/model.23/Expand_5_output_0: 3e1d4449
/model.23/Unsqueeze_9_output_0: 3e1d4449
/model.23/Unsqueeze_10_output_0: 3e1d4449
/model.23/Concat_20_output_0: 3e1d4449
/model.23/Reshape_17_output_0: 3e1d4449
(Unnamed Layer* 718) [Constant]_output: 0
(Unnamed Layer* 719) [Shuffle]_output: 0
/model.23/ConstantOfShape_2_output_0: 0
(Unnamed Layer* 722) [Shuffle]_output: 3e810a14
/model.23/Add_8_output_0: 3e810a14
/model.23/Concat_22_output_0: 3f204a85
/model.23/Concat_23_output_0: 3e810a14
/model.23/Transpose_output_0: 3f204a85
/model.23/Transpose_1_output_0: 3e810a14
/model.23/Split_1_output_0: 3e069cbf
/model.23/Split_1_output_1: 7f800000
/model.23/dfl/Reshape_output_0: 3e069cbf
/model.23/dfl/Transpose_output_0: 3e069cbf
(Unnamed Layer* 751) [Softmax]_output: 3bb7014f
/model.23/dfl/conv/Conv_output_0: 3db95e63
/model.23/dfl/Reshape_1_output_0: 3db95e63
/model.23/Unsqueeze_12_output_0: 3f204a85
/model.23/Slice_output_0: 3db15483
/model.23/Slice_1_output_0: 3dc64ac1
/model.23/Sub_output_0: 3f1fca99
/model.23/Add_10_output_0: 3f230760
/model.23/Add_11_output_0: 3fb0e29f
(Unnamed Layer* 834) [Shuffle]_output: 3c810a14
/model.23/Div_1_output_0: 3f30e29f
/model.23/Sub_1_output_0: 3e2d899e
/model.23/Concat_24_output_0: 3f2ac5b1
(Unnamed Layer* 841) [Shuffle]_output: 3e810a14
/model.23/Mul_5_output_0: 40a0bd9a
/model.23/Sigmoid_output_0: 0
output0: 40a0bd9a
