TRT-8502-EntropyCalibration2
images: 3bd79f3e
/model.0/conv/Conv_output_0: 3d6cb62b
(Unnamed Layer* 1) [Constant]_output: 3e810a14
/model.23/Split_output_0: 3d810a14
/model.23/Split_output_1: 3e010a14
/model.23/Split_output_2: 3e810a14
/model.0/act/Sigmoid_output_0: 3c010a14
/model.0/act/Mul_output_0: 3d78f0b3
/model.1/conv/Conv_output_0: 3e92b2d9
/model.1/act/Sigmoid_output_0: 3c010a14
/model.1/act/Mul_output_0: 3e92b2d9
/model.2/cv1/conv/Conv_output_0: 3e61f173
/model.2/cv1/act/Sigmoid_output_0: 3c010a14
/model.2/cv1/act/Mul_output_0: 3ddc4954
/model.2/Split_output_0: 3ddc4954
/model.2/Split_output_1: 3da8b28f
/model.2/m.0/cv1/conv/Conv_output_0: 3d00c93f
/model.2/m.0/cv1/act/Sigmoid_output_0: 3bdf15cc
/model.2/m.0/cv1/act/Mul_output_0: 3c2039ea
/model.2/m.0/cv2/conv/Conv_output_0: 3e01ee52
/model.2/m.0/cv2/act/Sigmoid_output_0: 3c010a14
/model.2/m.0/cv2/act/Mul_output_0: 3dc6c062
/model.2/m.0/Add_output_0: 3e01410e
/model.2/Concat_output_0: 3e01cc0a
/model.2/cv2/conv/Conv_output_0: 3e4ce9e1
/model.2/cv2/act/Sigmoid_output_0: 3c010a14
/model.2/cv2/act/Mul_output_0: 3d7a1456
/model.3/conv/Conv_output_0: 3d5b3286
/model.3/act/Sigmoid_output_0: 3c010a14
/model.3/act/Mul_output_0: 3ce2e10c
/model.4/cv1/conv/Conv_output_0: 3d15a8fc
/model.4/cv1/act/Sigmoid_output_0: 3bff18c5
/model.4/cv1/act/Mul_output_0: 3cb4a519
/model.4/Split_output_0: 3c897ab7
/model.4/Split_output_1: 3c781ea6
/model.4/m.0/cv1/conv/Conv_output_0: 3cb39631
/model.4/m.0/cv1/act/Sigmoid_output_0: 3bf390ae
/model.4/m.0/cv1/act/Mul_output_0: 3cb1f304
/model.4/m.0/cv2/conv/Conv_output_0: 3d41278a
/model.4/m.0/cv2/act/Sigmoid_output_0: 3c01b042
/model.4/m.0/cv2/act/Mul_output_0: 3d2388e8
/model.4/m.0/Add_output_0: 3d4458f5
/model.4/Concat_output_0: 3d277d01
/model.4/cv2/conv/Conv_output_0: 3d887ebd
/model.4/cv2/act/Sigmoid_output_0: 3c020f8a
/model.4/cv2/act/Mul_output_0: 3c83349d
/model.5/conv/Conv_output_0: 3d7cd900
/model.5/act/Sigmoid_output_0: 3c00f04b
/model.5/act/Mul_output_0: 3cb33672
/model.6/cv1/conv/Conv_output_0: 3d7ed8ff
/model.6/cv1/act/Sigmoid_output_0: 3c00508c
/model.6/cv1/act/Mul_output_0: 3d475dac
/model.6/Split_output_0: 3d1168b9
/model.6/Split_output_1: 3cb45363
/model.6/m.0/cv1/conv/Conv_output_0: 3cbea6cb
/model.6/m.0/cv2/conv/Conv_output_0: 3d5036ae
/model.6/m.0/cv1/act/Sigmoid_output_0: 3bf6fe7f
/model.6/m.0/cv2/act/Sigmoid_output_0: 3c059930
/model.6/m.0/cv1/act/Mul_output_0: 3cb10093
/model.6/m.0/cv2/act/Mul_output_0: 3d6846c6
/model.6/m.0/m/m.0/cv1/conv/Conv_output_0: 3d2d6c1a
/model.6/m.0/m/m.0/cv1/act/Sigmoid_output_0: 3c0c1ad4
/model.6/m.0/m/m.0/cv1/act/Mul_output_0: 3cb28df3
/model.6/m.0/m/m.0/cv2/conv/Conv_output_0: 3d6ef9ef
/model.6/m.0/m/m.0/cv2/act/Sigmoid_output_0: 3c071e36
/model.6/m.0/m/m.0/cv2/act/Mul_output_0: 3cd13995
/model.6/m.0/m/m.0/Add_output_0: 3d3d71f1
/model.6/m.0/m/m.1/cv1/conv/Conv_output_0: 3d35e824
/model.6/m.0/m/m.1/cv1/act/Sigmoid_output_0: 3c027578
/model.6/m.0/m/m.1/cv1/act/Mul_output_0: 3cc21ce0
/model.6/m.0/m/m.1/cv2/conv/Conv_output_0: 3da45277
/model.6/m.0/m/m.1/cv2/act/Sigmoid_output_0: 3c00f0ef
/model.6/m.0/m/m.1/cv2/act/Mul_output_0: 3d6a8107
/model.6/m.0/m/m.1/Add_output_0: 3d8e41e6
/model.6/m.0/Concat_output_0: 3d6824db
/model.6/m.0/cv3/conv/Conv_output_0: 3dbe1320
/model.6/m.0/cv3/act/Sigmoid_output_0: 3c06133d
/model.6/m.0/cv3/act/Mul_output_0: 3cd3bf49
/model.6/Concat_output_0: 3d475dac
/model.6/cv2/conv/Conv_output_0: 3d739b90
/model.6/cv2/act/Sigmoid_output_0: 3c00d96c
/model.6/cv2/act/Mul_output_0: 3c7fd881
/model.7/conv/Conv_output_0: 3d8e6c58
/model.7/act/Sigmoid_output_0: 3c0abc9b
/model.7/act/Mul_output_0: 3cc2ef15
/model.8/cv1/conv/Conv_output_0: 3db28b6d
/model.8/cv1/act/Sigmoid_output_0: 3c053a60
/model.8/cv1/act/Mul_output_0: 3c957022
/model.8/Split_output_0: 3cd3e771
/model.8/Split_output_1: 3cc33f27
/model.8/m.0/cv1/conv/Conv_output_0: 3d3ceda1
/model.8/m.0/cv2/conv/Conv_output_0: 3dc5ad6f
/model.8/m.0/cv1/act/Sigmoid_output_0: 3c097fd6
/model.8/m.0/cv2/act/Sigmoid_output_0: 3c053a6c
/model.8/m.0/cv1/act/Mul_output_0: 3c9b3f90
/model.8/m.0/cv2/act/Mul_output_0: 3d124514
/model.8/m.0/m/m.0/cv1/conv/Conv_output_0: 3d846a51
/model.8/m.0/m/m.0/cv1/act/Sigmoid_output_0: 3c0310e1
/model.8/m.0/m/m.0/cv1/act/Mul_output_0: 3cc13c99
/model.8/m.0/m/m.0/cv2/conv/Conv_output_0: 3da2729f
/model.8/m.0/m/m.0/cv2/act/Sigmoid_output_0: 3c0109ed
/model.8/m.0/m/m.0/cv2/act/Mul_output_0: 3d116547
/model.8/m.0/m/m.0/Add_output_0: 3da36571
/model.8/m.0/m/m.1/cv1/conv/Conv_output_0: 3d9216a7
/model.8/m.0/m/m.1/cv1/act/Sigmoid_output_0: 3c010997
/model.8/m.0/m/m.1/cv1/act/Mul_output_0: 3cd42fc4
/model.8/m.0/m/m.1/cv2/conv/Conv_output_0: 3de44418
/model.8/m.0/m/m.1/cv2/act/Sigmoid_output_0: 3c00d9ac
/model.8/m.0/m/m.1/cv2/act/Mul_output_0: 3d414ca7
/model.8/m.0/m/m.1/Add_output_0: 3dd484c7
/model.8/m.0/Concat_output_0: 3d6ab8db
/model.8/m.0/cv3/conv/Conv_output_0: 3dc45d5e
/model.8/m.0/cv3/act/Sigmoid_output_0: 3c03abed
/model.8/m.0/cv3/act/Mul_output_0: 3ce5f7f4
/model.8/Concat_output_0: 3cc7edea
/model.8/cv2/conv/Conv_output_0: 3dc75364
/model.8/cv2/act/Sigmoid_output_0: 3c0213c3
/model.8/cv2/act/Mul_output_0: 3d03dfab
/model.9/cv1/conv/Conv_output_0: 3d8a6122
/model.9/cv1/act/Sigmoid_output_0: 3c008d1b
/model.9/cv1/act/Mul_output_0: 3d6ddc8c
/model.9/m/MaxPool_output_0: 3d6ddc8c
/model.9/m_1/MaxPool_output_0: 3d6ddc8c
/model.9/m_2/MaxPool_output_0: 3d6ddc8c
/model.9/Concat_output_0: 3da892eb
/model.9/cv2/conv/Conv_output_0: 3d994f28
/model.9/cv2/act/Sigmoid_output_0: 3bff0bad
/model.9/cv2/act/Mul_output_0: 3c809fb6
/model.10/cv1/conv/Conv_output_0: 3daf5feb
/model.10/cv1/act/Sigmoid_output_0: 3c0111be
/model.10/cv1/act/Mul_output_0: 3d29561a
/model.10/Split_output_0: 3d29561a
/model.10/Split_output_1: 3d27b106
/model.10/m/m.0/attn/qkv/conv/Conv_output_0: 3d670ce4
/model.10/m/m.0/attn/Reshape_output_0: 3d670ce4
/model.10/m/m.0/attn/Split_output_0: 3d4610c4
/model.10/m/m.0/attn/Split_output_1: 3d679e28
/model.10/m/m.0/attn/Split_output_2: 3d813b88
/model.10/m/m.0/attn/Transpose_output_0: 3d4610c4
/model.10/m/m.0/attn/Reshape_2_output_0: 3d813b88
/model.10/m/m.0/attn/MatMul_output_0: 3f5c1dd0
/model.10/m/m.0/attn/pe/conv/Conv_output_0: 3d357eab
(Unnamed Layer* 221) [Shuffle]_output: 3ab67d3d
/model.10/m/m.0/attn/Mul_1_output_0: 3e1ba555
(Unnamed Layer* 223) [Softmax]_output: 3a6acd1d
/model.10/m/m.0/attn/Transpose_1_output_0: 3a6acd1d
/model.10/m/m.0/attn/MatMul_1_output_0: 3d4a2178
/model.10/m/m.0/attn/Reshape_1_output_0: 3d4a2178
/model.10/m/m.0/attn/Add_output_0: 3d0f43e6
/model.10/m/m.0/attn/proj/conv/Conv_output_0: 3d1b8e7a
/model.10/m/m.0/Add_output_0: 3d82da95
/model.10/m/m.0/ffn/ffn.0/conv/Conv_output_0: 3d64d761
/model.10/m/m.0/ffn/ffn.0/act/Sigmoid_output_0: 3bfca138
/model.10/m/m.0/ffn/ffn.0/act/Mul_output_0: 3c68436c
/model.10/m/m.0/ffn/ffn.1/conv/Conv_output_0: 3d303c0e
/model.10/m/m.0/Add_1_output_0: 3dacee7a
/model.10/Concat_output_0: 3d458782
/model.10/cv2/conv/Conv_output_0: 3da832f2
/model.10/cv2/act/Sigmoid_output_0: 3c00d5aa
/model.10/cv2/act/Mul_output_0: 3c9175cc
/model.11/Resize_output_0: 3c9175cc
/model.12/Concat_output_0: 3c804a7e
/model.13/cv1/conv/Conv_output_0: 3d944f09
/model.13/cv1/act/Sigmoid_output_0: 3c01a07a
/model.13/cv1/act/Mul_output_0: 3cc2da3a
/model.13/Split_output_0: 3cea5a31
/model.13/Split_output_1: 3c80a10b
/model.13/m.0/cv1/conv/Conv_output_0: 3d2c11d8
/model.13/m.0/cv1/act/Sigmoid_output_0: 3c005270
/model.13/m.0/cv1/act/Mul_output_0: 3c746ac3
/model.13/m.0/cv2/conv/Conv_output_0: 3d82b332
/model.13/m.0/cv2/act/Sigmoid_output_0: 3c0106ef
/model.13/m.0/cv2/act/Mul_output_0: 3cd26290
/model.13/m.0/Add_output_0: 3d4f693f
/model.13/Concat_output_0: 3cd57b20
/model.13/cv2/conv/Conv_output_0: 3d681ef0
/model.13/cv2/act/Sigmoid_output_0: 3c040ae1
/model.13/cv2/act/Mul_output_0: 3c348f56
/model.14/Resize_output_0: 3c348f56
/model.15/Concat_output_0: 3c83349d
/model.16/cv1/conv/Conv_output_0: 3d5529e4
/model.16/cv1/act/Sigmoid_output_0: 3bfe1512
/model.16/cv1/act/Mul_output_0: 3c90d032
/model.16/Split_output_0: 3cb21c3a
/model.16/Split_output_1: 3c876313
/model.16/m.0/cv1/conv/Conv_output_0: 3d0f11a6
/model.16/m.0/cv1/act/Sigmoid_output_0: 3c01a76b
/model.16/m.0/cv1/act/Mul_output_0: 3cc08275
/model.16/m.0/cv2/conv/Conv_output_0: 3d5d26c5
/model.16/m.0/cv2/act/Sigmoid_output_0: 3c006119
/model.16/m.0/cv2/act/Mul_output_0: 3ce6c638
/model.16/m.0/Add_output_0: 3d307960
/model.16/Concat_output_0: 3cc13977
/model.16/cv2/conv/Conv_output_0: 3d5eae46
/model.16/cv2/act/Sigmoid_output_0: 3c015f09
/model.16/cv2/act/Mul_output_0: 3ce5db75
/model.17/conv/Conv_output_0: 3d820694
/model.23/cv2.0/cv2.0.0/conv/Conv_output_0: 3d90233b
/model.23/cv3.0/cv3.0.0/cv3.0.0.0/conv/Conv_output_0: 3d24af37
/model.17/act/Sigmoid_output_0: 3c1d35dc
/model.23/cv2.0/cv2.0.0/act/Sigmoid_output_0: 3bfc634b
/model.23/cv3.0/cv3.0.0/cv3.0.0.0/act/Sigmoid_output_0: 3c01825e
/model.17/act/Mul_output_0: 3c68266e
/model.23/cv2.0/cv2.0.0/act/Mul_output_0: 3c734b45
/model.23/cv3.0/cv3.0.0/cv3.0.0.0/act/Mul_output_0: 3d0fb15f
/model.18/Concat_output_0: 3c68266e
/model.23/cv2.0/cv2.0.1/conv/Conv_output_0: 3e54a589
/model.23/cv3.0/cv3.0.0/cv3.0.0.1/conv/Conv_output_0: 3db6ad1b
/model.19/cv1/conv/Conv_output_0: 3d8851b1
/model.23/cv2.0/cv2.0.1/act/Sigmoid_output_0: 3c010a14
/model.23/cv3.0/cv3.0.0/cv3.0.0.1/act/Sigmoid_output_0: 3c010a12
/model.19/cv1/act/Sigmoid_output_0: 3c010c7a
/model.23/cv2.0/cv2.0.1/act/Mul_output_0: 3e0fb1f8
/model.23/cv3.0/cv3.0.0/cv3.0.0.1/act/Mul_output_0: 3d1104db
/model.19/cv1/act/Mul_output_0: 3c80119a
/model.23/cv2.0/cv2.0.2/Conv_output_0: 3ddb740d
/model.23/cv3.0/cv3.0.1/cv3.0.1.0/conv/Conv_output_0: 3dc635b3
/model.19/Split_output_0: 3cbff773
/model.19/Split_output_1: 3c811f82
/model.23/cv3.0/cv3.0.1/cv3.0.1.0/act/Sigmoid_output_0: 3c010a14
/model.19/m.0/cv1/conv/Conv_output_0: 3d874dd5
/model.23/cv3.0/cv3.0.1/cv3.0.1.0/act/Mul_output_0: 3dc114ca
/model.19/m.0/cv1/act/Sigmoid_output_0: 3c01896a
/model.23/cv3.0/cv3.0.1/cv3.0.1.1/conv/Conv_output_0: 3ddaf79a
/model.19/m.0/cv1/act/Mul_output_0: 3ca671fa
/model.23/cv3.0/cv3.0.1/cv3.0.1.1/act/Sigmoid_output_0: 3c010a14
/model.19/m.0/cv2/conv/Conv_output_0: 3d8a5204
/model.23/cv3.0/cv3.0.1/cv3.0.1.1/act/Mul_output_0: 3dc42112
/model.19/m.0/cv2/act/Sigmoid_output_0: 3c00fc9c
/model.23/cv3.0/cv3.0.2/Conv_output_0: 3df45ffc
/model.19/m.0/cv2/act/Mul_output_0: 3d0ff48a
/model.23/Concat_output_0: 3df45ffc
/model.19/m.0/Add_output_0: 3d62bce6
/model.19/Concat_output_0: 3d00348e
/model.19/cv2/conv/Conv_output_0: 3d920eed
/model.19/cv2/act/Sigmoid_output_0: 3c041368
/model.23/Range_output_0: 3f1f4871
(Unnamed Layer* 362) [Shuffle]_output: 3c010a14
/model.23/Range_1_output_0: 3f1f4871
(Unnamed Layer* 371) [Shuffle]_output: 3c010a14
/model.19/cv2/act/Mul_output_0: 3cc4c49c
/model.23/Reshape_output_0: 3df45ffc
(Unnamed Layer* 376) [Shuffle]_output: 3b810a14
/model.23/Add_output_0: 3f204a85
(Unnamed Layer* 378) [Shuffle]_output: 3b810a14
/model.23/Add_1_output_0: 3f204a85
/model.20/conv/Conv_output_0: 3da03c0a
/model.23/cv2.1/cv2.1.0/conv/Conv_output_0: 3dd34f31
/model.23/cv3.1/cv3.1.0/cv3.1.0.0/conv/Conv_output_0: 3d84d335
(Unnamed Layer* 385) [Constant]_output: 0
(Unnamed Layer* 386) [Shuffle]_output: 0
/model.23/ConstantOfShape_output_0: 0
/model.23/Reshape_5_output_0: 3f204a85
/model.23/Reshape_6_output_0: 3f204a85
/model.20/act/Sigmoid_output_0: 3c010a12
/model.23/cv2.1/cv2.1.0/act/Sigmoid_output_0: 3c010a00
/model.23/cv3.1/cv3.1.0/cv3.1.0.0/act/Sigmoid_output_0: 3c01ef81
(Unnamed Layer* 396) [Shuffle]_output: 3d810a14
/model.23/Add_2_output_0: 3d810a14
/model.20/act/Mul_output_0: 3cb46825
/model.23/cv2.1/cv2.1.0/act/Mul_output_0: 3d27849e
/model.23/cv3.1/cv3.1.0/cv3.1.0.0/act/Mul_output_0: 3d23cf47
/model.23/Expand_output_0: 3f204a85
/model.23/Expand_1_output_0: 3f204a85
/model.21/Concat_output_0: 3cb46825
/model.23/cv2.1/cv2.1.1/conv/Conv_output_0: 3e371c8f
/model.23/cv3.1/cv3.1.0/cv3.1.0.1/conv/Conv_output_0: 3d92665c
/model.23/Unsqueeze_3_output_0: 3f204a85
/model.23/Unsqueeze_4_output_0: 3f204a85
/model.22/cv1/conv/Conv_output_0: 3dbc1762
/model.23/cv2.1/cv2.1.1/act/Sigmoid_output_0: 3c010a14
/model.23/cv3.1/cv3.1.0/cv3.1.0.1/act/Sigmoid_output_0: 3c01092b
/model.23/Concat_10_output_0: 3f204a85
/model.22/cv1/act/Sigmoid_output_0: 3c010a14
/model.23/cv2.1/cv2.1.1/act/Mul_output_0: 3e140f2e
/model.23/cv3.1/cv3.1.0/cv3.1.0.1/act/Mul_output_0: 3d116f26
/model.23/Reshape_7_output_0: 3f204a85
/model.22/cv1/act/Mul_output_0: 3d139038
/model.23/cv2.1/cv2.1.2/Conv_output_0: 3dcfb473
/model.23/cv3.1/cv3.1.1/cv3.1.1.0/conv/Conv_output_0: 3da7dc57
/model.22/Split_output_0: 3d11fb14
/model.22/Split_output_1: 3d03419a
/model.23/cv3.1/cv3.1.1/cv3.1.1.0/act/Sigmoid_output_0: 3c010a14
/model.22/m.0/cv1/conv/Conv_output_0: 3d05d6d0
/model.22/m.0/cv2/conv/Conv_output_0: 3d8e7186
/model.23/cv3.1/cv3.1.1/cv3.1.1.0/act/Mul_output_0: 3d8e29dc
/model.22/m.0/cv1/act/Sigmoid_output_0: 3bfaf894
/model.22/m.0/cv2/act/Sigmoid_output_0: 3c0109d5
/model.23/cv3.1/cv3.1.1/cv3.1.1.1/conv/Conv_output_0: 3dcbeaaf
/model.22/m.0/cv1/act/Mul_output_0: 3c1547b2
/model.22/m.0/cv2/act/Mul_output_0: 3d008e19
/model.23/cv3.1/cv3.1.1/cv3.1.1.1/act/Sigmoid_output_0: 3c010a14
/model.22/m.0/m/m.0/cv1/conv/Conv_output_0: 3d7c1da6
/model.23/cv3.1/cv3.1.1/cv3.1.1.1/act/Mul_output_0: 3d011ac2
/model.22/m.0/m/m.0/cv1/act/Sigmoid_output_0: 3c05755a
/model.23/cv3.1/cv3.1.2/Conv_output_0: 3db9a327
/model.22/m.0/m/m.0/cv1/act/Mul_output_0: 3c9a8b11
/model.23/Concat_1_output_0: 3dc91cd1
/model.22/m.0/m/m.0/cv2/conv/Conv_output_0: 3d2181a3
/model.23/Reshape_1_output_0: 3dc91cd1
/model.22/m.0/m/m.0/cv2/act/Sigmoid_output_0: 3bffbd05
/model.22/m.0/m/m.0/cv2/act/Mul_output_0: 3cc0b5fc
/model.22/m.0/m/m.0/Add_output_0: 3d180b48
/model.23/Range_2_output_0: 3e9d4449
(Unnamed Layer* 493) [Shuffle]_output: 3c010a14
/model.23/Range_3_output_0: 3e9d4449
(Unnamed Layer* 502) [Shuffle]_output: 3c010a14
/model.22/m.0/m/m.1/cv1/conv/Conv_output_0: 3d4259ce
(Unnamed Layer* 505) [Shuffle]_output: 3b810a14
/model.23/Add_3_output_0: 3e9f4871
(Unnamed Layer* 507) [Shuffle]_output: 3b810a14
/model.23/Add_4_output_0: 3e9f4871
/model.22/m.0/m/m.1/cv1/act/Sigmoid_output_0: 3bfcc44d
(Unnamed Layer* 511) [Constant]_output: 0
(Unnamed Layer* 512) [Shuffle]_output: 0
/model.23/ConstantOfShape_1_output_0: 0
/model.23/Reshape_10_output_0: 3e9f4871
/model.23/Reshape_11_output_0: 3e9f4871
/model.22/m.0/m/m.1/cv1/act/Mul_output_0: 3c903527
(Unnamed Layer* 520) [Shuffle]_output: 3e010a14
/model.23/Add_5_output_0: 3e010a14
/model.22/m.0/m/m.1/cv2/conv/Conv_output_0: 3dd0cc92
/model.23/Expand_2_output_0: 3e9f4871
/model.23/Expand_3_output_0: 3e9f4871
/model.22/m.0/m/m.1/cv2/act/Sigmoid_output_0: 3c010b81
/model.23/Unsqueeze_6_output_0: 3e9f4871
/model.23/Unsqueeze_7_output_0: 3e9f4871
/model.22/m.0/m/m.1/cv2/act/Mul_output_0: 3d688c51
/model.23/Concat_15_output_0: 3e9f4871
/model.22/m.0/m/m.1/Add_output_0: 3da6bf59
/model.23/Reshape_12_output_0: 3e9f4871
/model.22/m.0/Concat_output_0: 3d687a35
/model.22/m.0/cv3/conv/Conv_output_0: 3d9d6a25
/model.22/m.0/cv3/act/Sigmoid_output_0: 3c006c83
/model.22/m.0/cv3/act/Mul_output_0: 3d00ad41
/model.22/Concat_output_0: 3d13e213
/model.22/cv2/conv/Conv_output_0: 3da733b4
/model.22/cv2/act/Sigmoid_output_0: 3c021427
/model.22/cv2/act/Mul_output_0: 3ceb89f5
/model.23/cv2.2/cv2.2.0/conv/Conv_output_0: 3d9a8382
/model.23/cv3.2/cv3.2.0/cv3.2.0.0/conv/Conv_output_0: 3d988ee4
/model.23/cv2.2/cv2.2.0/act/Sigmoid_output_0: 3c1a440c
/model.23/cv3.2/cv3.2.0/cv3.2.0.0/act/Sigmoid_output_0: 3c01cc0d
/model.23/cv2.2/cv2.2.0/act/Mul_output_0: 3d293067
/model.23/cv3.2/cv3.2.0/cv3.2.0.0/act/Mul_output_0: 3d8c5ce8
/model.23/cv2.2/cv2.2.1/conv/Conv_output_0: 3e16e545
/model.23/cv3.2/cv3.2.0/cv3.2.0.1/conv/Conv_output_0: 3d1864dc
/model.23/cv2.2/cv2.2.1/act/Sigmoid_output_0: 3c021427
/model.23/cv3.2/cv3.2.0/cv3.2.0.1/act/Sigmoid_output_0: 3c0699ba
/model.23/cv2.2/cv2.2.1/act/Mul_output_0: 3dbfc486
/model.23/cv3.2/cv3.2.0/cv3.2.0.1/act/Mul_output_0: 3ca5441e
/model.23/cv2.2/cv2.2.2/Conv_output_0: 3dbc12bf
/model.23/cv3.2/cv3.2.1/cv3.2.1.0/conv/Conv_output_0: 3d36a27e
/model.23/cv3.2/cv3.2.1/cv3.2.1.0/act/Sigmoid_output_0: 3c00f2be
/model.23/cv3.2/cv3.2.1/cv3.2.1.0/act/Mul_output_0: 3ce6b9ab
/model.23/cv3.2/cv3.2.1/cv3.2.1.1/conv/Conv_output_0: 3d0a9e9a
/model.23/cv3.2/cv3.2.1/cv3.2.1.1/act/Sigmoid_output_0: 3bff1c5b
/model.23/cv3.2/cv3.2.1/cv3.2.1.1/act/Mul_output_0: 3c800c79
/model.23/cv3.2/cv3.2.2/Conv_output_0: 3d9704b2
/model.23/Concat_2_output_0: 3dbc12bf
/model.23/Reshape_2_output_0: 3dbc12bf
/model.23/Concat_6_output_0: 3df45ffc
/model.23/Split_1_output_0: 3ddba9bb
/model.23/Split_1_output_1: 3dfd85fe
/model.23/Range_4_output_0: 3e193bf8
(Unnamed Layer* 616) [Shuffle]_output: 3c010a14
/model.23/Range_5_output_0: 3e193bf8
(Unnamed Layer* 625) [Shuffle]_output: 3c010a14
/model.23/Sigmoid_output_0: 3a78e097
(Unnamed Layer* 629) [Shuffle]_output: 3b810a14
/model.23/Add_6_output_0: 3e1d4449
(Unnamed Layer* 631) [Shuffle]_output: 3b810a14
/model.23/Add_7_output_0: 3e1d4449
(Unnamed Layer* 636) [Constant]_output: 0
(Unnamed Layer* 637) [Shuffle]_output: 0
/model.23/ConstantOfShape_2_output_0: 0
/model.23/Reshape_15_output_0: 3e1d4449
/model.23/Reshape_16_output_0: 3e1d4449
(Unnamed Layer* 646) [Shuffle]_output: 3e810a14
/model.23/Add_8_output_0: 3e810a14
/model.23/Concat_23_output_0: 3e810a14
/model.23/dfl/Reshape_output_0: 3ddba9bb
/model.23/Expand_4_output_0: 3e1d4449
/model.23/Expand_5_output_0: 3e1d4449
/model.23/Transpose_1_output_0: 3e810a14
/model.23/dfl/Transpose_output_0: 3ddba9bb
/model.23/Unsqueeze_9_output_0: 3e1d4449
/model.23/Unsqueeze_10_output_0: 3e1d4449
(Unnamed Layer* 688) [Softmax]_output: 3b9ebe30
/model.23/Concat_20_output_0: 3e1d4449
/model.23/dfl/conv/Conv_output_0: 3dbc64fc
/model.23/Reshape_17_output_0: 3e1d4449
/model.23/dfl/Reshape_1_output_0: 3dbc64fc
/model.23/Concat_22_output_0: 3f204a85
/model.23/Slice_output_0: 3dd60062
/model.23/Slice_1_output_0: 3dbc306a
/model.23/Transpose_output_0: 3f204a85
/model.23/Unsqueeze_12_output_0: 3f204a85
/model.23/Sub_output_0: 3f1f3528
/model.23/Add_10_output_0: 3f219d98
/model.23/Add_11_output_0: 3fa2c62e
/model.23/Sub_1_output_0: 3e2714bb
(Unnamed Layer* 761) [Shuffle]_output: 3c810a14
/model.23/Div_1_output_0: 3f22c62e
/model.23/Concat_24_output_0: 3f22c62e
(Unnamed Layer* 767) [Shuffle]_output: 3e810a14
/model.23/Mul_5_output_0: 40a2c62e
output0: 40a2c62e
