TRT-8502-EntropyCalibration2
images: 3b66eddc
/model.0/conv/Conv_output_0: 3eab74c3
(Unnamed Layer* 1) [Constant]_output: 3e810a14
/model.23/Split_output_0: 3d810a14
/model.23/Split_output_1: 3e010a14
/model.23/Split_output_2: 3e810a14
/model.0/act/Sigmoid_output_0: 3c010a14
/model.0/act/Mul_output_0: 3e94875d
/model.1/conv/Conv_output_0: 4030c553
/model.1/act/Sigmoid_output_0: 3c010a14
/model.1/act/Mul_output_0: 3ff32459
/model.2/cv1/conv/Conv_output_0: 40169789
/model.2/cv1/act/Sigmoid_output_0: 3c010a14
/model.2/cv1/act/Mul_output_0: 3eba1523
/model.2/Split_output_0: 3ea7de91
/model.2/Split_output_1: 3eb1cfef
/model.2/m.0/cv1/conv/Conv_output_0: 3e48b579
/model.2/m.0/cv1/act/Sigmoid_output_0: 3c00d517
/model.2/m.0/cv1/act/Mul_output_0: 3c0c05ff
/model.2/m.0/cv2/conv/Conv_output_0: 3ed9f4b7
/model.2/m.0/cv2/act/Sigmoid_output_0: 3c010a14
/model.2/m.0/cv2/act/Mul_output_0: 3daf9084
/model.2/m.0/Add_output_0: 3f196eeb
/model.2/Concat_output_0: 3f1441d9
/model.2/cv2/conv/Conv_output_0: 3f8abbe4
/model.2/cv2/act/Sigmoid_output_0: 3c010a14
/model.2/cv2/act/Mul_output_0: 3e89adb1
/model.3/conv/Conv_output_0: 3e31ffe9
/model.3/act/Sigmoid_output_0: 3c010a14
/model.3/act/Mul_output_0: 3d6876dd
/model.4/cv1/conv/Conv_output_0: 3dd6caa3
/model.4/cv1/act/Sigmoid_output_0: 3c00f6ff
/model.4/cv1/act/Mul_output_0: 3d421ade
/model.4/Split_output_0: 3d261258
/model.4/Split_output_1: 3d125e3c
/model.4/m.0/cv1/conv/Conv_output_0: 3d113412
/model.4/m.0/cv1/act/Sigmoid_output_0: 3bfbfd3c
/model.4/m.0/cv1/act/Mul_output_0: 3cd238f0
/model.4/m.0/cv2/conv/Conv_output_0: 3d745f25
/model.4/m.0/cv2/act/Sigmoid_output_0: 3c00f0a0
/model.4/m.0/cv2/act/Mul_output_0: 3d3fe0e9
/model.4/m.0/Add_output_0: 3d6bde30
/model.4/Concat_output_0: 3d66933f
/model.4/cv2/conv/Conv_output_0: 3db8d34e
/model.4/cv2/act/Sigmoid_output_0: 3c05212c
/model.4/cv2/act/Mul_output_0: 3ca5caff
/model.5/conv/Conv_output_0: 3d9a1a82
/model.5/act/Sigmoid_output_0: 3c00ccf0
/model.5/act/Mul_output_0: 3d23b117
/model.6/cv1/conv/Conv_output_0: 3dd27df7
/model.6/cv1/act/Sigmoid_output_0: 3c00c68c
/model.6/cv1/act/Mul_output_0: 3d25bfdb
/model.6/Split_output_0: 3d24822a
/model.6/Split_output_1: 3d25bfdb
/model.6/m.0/cv1/conv/Conv_output_0: 3d4db9c5
/model.6/m.0/cv2/conv/Conv_output_0: 3d8d5003
/model.6/m.0/cv1/act/Sigmoid_output_0: 3bfd6870
/model.6/m.0/cv2/act/Sigmoid_output_0: 3c031602
/model.6/m.0/cv1/act/Mul_output_0: 3cd1a412
/model.6/m.0/cv2/act/Mul_output_0: 3d6b3b14
/model.6/m.0/m/m.0/cv1/conv/Conv_output_0: 3d87575f
/model.6/m.0/m/m.0/cv1/act/Sigmoid_output_0: 3bff202f
/model.6/m.0/m/m.0/cv1/act/Mul_output_0: 3cbfd3f6
/model.6/m.0/m/m.0/cv2/conv/Conv_output_0: 3d7ec41b
/model.6/m.0/m/m.0/cv2/act/Sigmoid_output_0: 3c04521a
/model.6/m.0/m/m.0/cv2/act/Mul_output_0: 3d10f4b2
/model.6/m.0/m/m.0/Add_output_0: 3d7c65cc
/model.6/m.0/m/m.1/cv1/conv/Conv_output_0: 3d63a394
/model.6/m.0/m/m.1/cv1/act/Sigmoid_output_0: 3bfd97b2
/model.6/m.0/m/m.1/cv1/act/Mul_output_0: 3c72dbbe
/model.6/m.0/m/m.1/cv2/conv/Conv_output_0: 3d8eec0c
/model.6/m.0/m/m.1/cv2/act/Sigmoid_output_0: 3c21d605
/model.6/m.0/m/m.1/cv2/act/Mul_output_0: 3d408335
/model.6/m.0/m/m.1/Add_output_0: 3dbf3086
/model.6/m.0/Concat_output_0: 3d6b3b14
/model.6/m.0/cv3/conv/Conv_output_0: 3dcd3f78
/model.6/m.0/cv3/act/Sigmoid_output_0: 3c0ea1cb
/model.6/m.0/cv3/act/Mul_output_0: 3d0ffa16
/model.6/Concat_output_0: 3d10bf48
/model.6/cv2/conv/Conv_output_0: 3da9e093
/model.6/cv2/act/Sigmoid_output_0: 3c00d3d2
/model.6/cv2/act/Mul_output_0: 3cd24d0a
/model.7/conv/Conv_output_0: 3db8440e
/model.7/act/Sigmoid_output_0: 3c01094a
/model.7/act/Mul_output_0: 3d1088d4
/model.8/cv1/conv/Conv_output_0: 3dba4cbe
/model.8/cv1/act/Sigmoid_output_0: 3c0109a4
/model.8/cv1/act/Mul_output_0: 3d24c1cb
/model.8/Split_output_0: 3d426180
/model.8/Split_output_1: 3cd1f2af
/model.8/m.0/cv1/conv/Conv_output_0: 3d4955cb
/model.8/m.0/cv2/conv/Conv_output_0: 3da7af6c
/model.8/m.0/cv1/act/Sigmoid_output_0: 3c008b0c
/model.8/m.0/cv2/act/Sigmoid_output_0: 3c01035d
/model.8/m.0/cv1/act/Mul_output_0: 3cb29f3f
/model.8/m.0/cv2/act/Mul_output_0: 3d41bbec
/model.8/m.0/m/m.0/cv1/conv/Conv_output_0: 3de2c951
/model.8/m.0/m/m.0/cv1/act/Sigmoid_output_0: 3c0105f5
/model.8/m.0/m/m.0/cv1/act/Mul_output_0: 3cd10ade
/model.8/m.0/m/m.0/cv2/conv/Conv_output_0: 3d9076db
/model.8/m.0/m/m.0/cv2/act/Sigmoid_output_0: 3c05099f
/model.8/m.0/m/m.0/cv2/act/Mul_output_0: 3d268b33
/model.8/m.0/m/m.0/Add_output_0: 3d405f5d
/model.8/m.0/m/m.1/cv1/conv/Conv_output_0: 3d9e1abf
/model.8/m.0/m/m.1/cv1/act/Sigmoid_output_0: 3c00e299
/model.8/m.0/m/m.1/cv1/act/Mul_output_0: 3ce58bdb
/model.8/m.0/m/m.1/cv2/conv/Conv_output_0: 3d9272a6
/model.8/m.0/m/m.1/cv2/act/Sigmoid_output_0: 3c00ef2c
/model.8/m.0/m/m.1/cv2/act/Mul_output_0: 3d6871f2
/model.8/m.0/m/m.1/Add_output_0: 3d9fae12
/model.8/m.0/Concat_output_0: 3d90de3c
/model.8/m.0/cv3/conv/Conv_output_0: 3d7d87a0
/model.8/m.0/cv3/act/Sigmoid_output_0: 3c003850
/model.8/m.0/cv3/act/Mul_output_0: 3cfff0ab
/model.8/Concat_output_0: 3d24c1cb
/model.8/cv2/conv/Conv_output_0: 3db6520c
/model.8/cv2/act/Sigmoid_output_0: 3c00bf99
/model.8/cv2/act/Mul_output_0: 3d0fdcc2
/model.9/cv1/conv/Conv_output_0: 3d5f9a0b
/model.9/cv1/act/Sigmoid_output_0: 3c0048bd
/model.9/cv1/act/Mul_output_0: 3d435bbd
/model.9/m/MaxPool_output_0: 3d435bbd
/model.9/m_1/MaxPool_output_0: 3d435bbd
/model.9/m_2/MaxPool_output_0: 3d435bbd
/model.9/Concat_output_0: 3d41653f
/model.9/cv2/conv/Conv_output_0: 3da22cbd
/model.9/cv2/act/Sigmoid_output_0: 3bfcaade
/model.9/cv2/act/Mul_output_0: 3ca49454
/model.10/cv1/conv/Conv_output_0: 3d98cc73
/model.10/cv1/act/Sigmoid_output_0: 3c00fed6
/model.10/cv1/act/Mul_output_0: 3d267f2b
/model.10/Split_output_0: 3d2467e1
/model.10/Split_output_1: 3d1257ff
/model.10/m/m.0/attn/qkv/conv/Conv_output_0: 3d783fba
/model.10/m/m.0/attn/Reshape_output_0: 3d783fba
/model.10/m/m.0/attn/Split_output_0: 3d24228f
/model.10/m/m.0/attn/Split_output_1: 3d849b42
/model.10/m/m.0/attn/Split_output_2: 3d7a7a69
/model.10/m/m.0/attn/Transpose_output_0: 3d24228f
/model.10/m/m.0/attn/Reshape_2_output_0: 3d7a7a69
/model.10/m/m.0/attn/MatMul_output_0: 3f3ddd3a
/model.10/m/m.0/attn/pe/conv/Conv_output_0: 3d60a34d
(Unnamed Layer* 221) [Shuffle]_output: 3ab67d3d
/model.10/m/m.0/attn/Mul_1_output_0: 3e064116
(Unnamed Layer* 223) [Softmax]_output: 3a6c1079
/model.10/m/m.0/attn/Transpose_1_output_0: 3a6c1079
/model.10/m/m.0/attn/MatMul_1_output_0: 3d499146
/model.10/m/m.0/attn/Reshape_1_output_0: 3d499146
/model.10/m/m.0/attn/Add_output_0: 3d15590c
/model.10/m/m.0/attn/proj/conv/Conv_output_0: 3d64447e
/model.10/m/m.0/Add_output_0: 3d745b1c
/model.10/m/m.0/ffn/ffn.0/conv/Conv_output_0: 3d649b51
/model.10/m/m.0/ffn/ffn.0/act/Sigmoid_output_0: 3bfea8a8
/model.10/m/m.0/ffn/ffn.0/act/Mul_output_0: 3c3ffbc7
/model.10/m/m.0/ffn/ffn.1/conv/Conv_output_0: 3d3b08ba
/model.10/m/m.0/Add_1_output_0: 3d90481a
/model.10/Concat_output_0: 3d40fe6e
/model.10/cv2/conv/Conv_output_0: 3da05317
/model.10/cv2/act/Sigmoid_output_0: 3bff120b
/model.10/cv2/act/Mul_output_0: 3c900fa9
/model.11/Resize_output_0: 3c900fa9
/model.12/Concat_output_0: 3cb1f69b
/model.13/cv1/conv/Conv_output_0: 3d45d603
/model.13/cv1/act/Sigmoid_output_0: 3c08b63e
/model.13/cv1/act/Mul_output_0: 3cbf68cb
/model.13/Split_output_0: 3cbf68cb
/model.13/Split_output_1: 3c99f4b6
/model.13/m.0/cv1/conv/Conv_output_0: 3d35952a
/model.13/m.0/cv1/act/Sigmoid_output_0: 3bfa05b6
/model.13/m.0/cv1/act/Mul_output_0: 3cb15eb5
/model.13/m.0/cv2/conv/Conv_output_0: 3d60e52b
/model.13/m.0/cv2/act/Sigmoid_output_0: 3c007519
/model.13/m.0/cv2/act/Mul_output_0: 3ce66c2c
/model.13/m.0/Add_output_0: 3d23cbdd
/model.13/Concat_output_0: 3cd46e50
/model.13/cv2/conv/Conv_output_0: 3d2cc42a
/model.13/cv2/act/Sigmoid_output_0: 3c065167
/model.13/cv2/act/Mul_output_0: 3c73c0db
/model.14/Resize_output_0: 3c73c0db
/model.15/Concat_output_0: 3ca5caff
/model.16/cv1/conv/Conv_output_0: 3d625f02
/model.16/cv1/act/Sigmoid_output_0: 3bff7401
/model.16/cv1/act/Mul_output_0: 3cc10830
/model.16/Split_output_0: 3cc095de
/model.16/Split_output_1: 3c875a0c
/model.16/m.0/cv1/conv/Conv_output_0: 3d207d90
/model.16/m.0/cv1/act/Sigmoid_output_0: 3bfe4d46
/model.16/m.0/cv1/act/Mul_output_0: 3ce6e5be
/model.16/m.0/cv2/conv/Conv_output_0: 3d7c4ece
/model.16/m.0/cv2/act/Sigmoid_output_0: 3bff80da
/model.16/m.0/cv2/act/Mul_output_0: 3ce726b0
/model.16/m.0/Add_output_0: 3d309fa5
/model.16/Concat_output_0: 3ce622ff
/model.16/cv2/conv/Conv_output_0: 3d4db1af
/model.16/cv2/act/Sigmoid_output_0: 3c000e55
/model.16/cv2/act/Mul_output_0: 3cbf701c
/model.17/conv/Conv_output_0: 3d466755
/model.23/cv2.0/cv2.0.0/conv/Conv_output_0: 3da00b8d
/model.23/cv3.0/cv3.0.0/cv3.0.0.0/conv/Conv_output_0: 3d598aa7
/model.17/act/Sigmoid_output_0: 3c00ce01
/model.23/cv2.0/cv2.0.0/act/Sigmoid_output_0: 3c00185f
/model.23/cv3.0/cv3.0.0/cv3.0.0.0/act/Sigmoid_output_0: 3c0287b1
/model.17/act/Mul_output_0: 3cd2d796
/model.23/cv2.0/cv2.0.0/act/Mul_output_0: 3c900a2d
/model.23/cv3.0/cv3.0.0/cv3.0.0.0/act/Mul_output_0: 3d413287
/model.18/Concat_output_0: 3c9a9e18
/model.23/cv2.0/cv2.0.1/conv/Conv_output_0: 3e6ce6a0
/model.23/cv3.0/cv3.0.0/cv3.0.0.1/conv/Conv_output_0: 3d83cb3b
/model.19/cv1/conv/Conv_output_0: 3d6e6302
/model.23/cv2.0/cv2.0.1/act/Sigmoid_output_0: 3c010a14
/model.23/cv3.0/cv3.0.0/cv3.0.0.1/act/Sigmoid_output_0: 3c00d69c
/model.19/cv1/act/Sigmoid_output_0: 3c00dd74
/model.23/cv2.0/cv2.0.1/act/Mul_output_0: 3e187edb
/model.23/cv3.0/cv3.0.0/cv3.0.0.1/act/Mul_output_0: 3d2543f9
/model.19/cv1/act/Mul_output_0: 3d00f570
/model.23/cv2.0/cv2.0.2/Conv_output_0: 3e14cb2f
/model.23/cv3.0/cv3.0.1/cv3.0.1.0/conv/Conv_output_0: 3d9ae062
/model.19/Split_output_0: 3d257790
/model.19/Split_output_1: 3c80e2e8
/model.23/cv3.0/cv3.0.1/cv3.0.1.0/act/Sigmoid_output_0: 3c031415
/model.19/m.0/cv1/conv/Conv_output_0: 3d702989
/model.23/cv3.0/cv3.0.1/cv3.0.1.0/act/Mul_output_0: 3d9114ca
/model.19/m.0/cv1/act/Sigmoid_output_0: 3c00f8ac
/model.23/cv3.0/cv3.0.1/cv3.0.1.1/conv/Conv_output_0: 3d780fd3
/model.19/m.0/cv1/act/Mul_output_0: 3cd36707
/model.23/cv3.0/cv3.0.1/cv3.0.1.1/act/Sigmoid_output_0: 3c00e845
/model.19/m.0/cv2/conv/Conv_output_0: 3db5c082
/model.23/cv3.0/cv3.0.1/cv3.0.1.1/act/Mul_output_0: 3d4371a6
/model.19/m.0/cv2/act/Sigmoid_output_0: 3c00e0bf
/model.23/cv3.0/cv3.0.2/Conv_output_0: 3d996d4c
/model.19/m.0/cv2/act/Mul_output_0: 3cffe42e
/model.23/Concat_output_0: 3e09ff87
/model.19/m.0/Add_output_0: 3d7d453b
/model.19/Concat_output_0: 3d13269a
/model.19/cv2/conv/Conv_output_0: 3d8e3c6d
/model.19/cv2/act/Sigmoid_output_0: 3c00c15c
/model.23/Range_output_0: 3f1f4871
(Unnamed Layer* 362) [Shuffle]_output: 3c010a14
/model.23/Range_1_output_0: 3f1f4871
(Unnamed Layer* 371) [Shuffle]_output: 3c010a14
/model.19/cv2/act/Mul_output_0: 3ce75de1
/model.23/Reshape_output_0: 3e09ff87
(Unnamed Layer* 376) [Shuffle]_output: 3b810a14
/model.23/Add_output_0: 3f204a85
(Unnamed Layer* 378) [Shuffle]_output: 3b810a14
/model.23/Add_1_output_0: 3f204a85
/model.20/conv/Conv_output_0: 3db1b1c8
/model.23/cv2.1/cv2.1.0/conv/Conv_output_0: 3e1cbd42
/model.23/cv3.1/cv3.1.0/cv3.1.0.0/conv/Conv_output_0: 3d8a09f9
(Unnamed Layer* 385) [Constant]_output: 0
(Unnamed Layer* 386) [Shuffle]_output: 0
/model.23/ConstantOfShape_output_0: 0
/model.23/Reshape_5_output_0: 3f204a85
/model.23/Reshape_6_output_0: 3f204a85
/model.20/act/Sigmoid_output_0: 3c25f9ac
/model.23/cv2.1/cv2.1.0/act/Sigmoid_output_0: 3c0111ce
/model.23/cv3.1/cv3.1.0/cv3.1.0.0/act/Sigmoid_output_0: 3c00f00a
(Unnamed Layer* 396) [Shuffle]_output: 3d810a14
/model.23/Add_2_output_0: 3d810a14
/model.20/act/Mul_output_0: 3d27d084
/model.23/cv2.1/cv2.1.0/act/Mul_output_0: 3d0094eb
/model.23/cv3.1/cv3.1.0/cv3.1.0.0/act/Mul_output_0: 3d6b5eab
/model.23/Expand_output_0: 3f204a85
/model.23/Expand_1_output_0: 3f204a85
/model.21/Concat_output_0: 3d02a594
/model.23/cv2.1/cv2.1.1/conv/Conv_output_0: 3e593995
/model.23/cv3.1/cv3.1.0/cv3.1.0.1/conv/Conv_output_0: 3d815d45
/model.23/Unsqueeze_3_output_0: 3f204a85
/model.23/Unsqueeze_4_output_0: 3f204a85
/model.22/cv1/conv/Conv_output_0: 3d8b921f
/model.23/cv2.1/cv2.1.1/act/Sigmoid_output_0: 3c010a14
/model.23/cv3.1/cv3.1.0/cv3.1.0.1/act/Sigmoid_output_0: 3c02107c
/model.23/Concat_10_output_0: 3f204a85
/model.22/cv1/act/Sigmoid_output_0: 3c075b33
/model.23/cv2.1/cv2.1.1/act/Mul_output_0: 3e10fd98
/model.23/cv3.1/cv3.1.0/cv3.1.0.1/act/Mul_output_0: 3d6a984e
/model.23/Reshape_7_output_0: 3f204a85
/model.22/cv1/act/Mul_output_0: 3d27b308
/model.23/cv2.1/cv2.1.2/Conv_output_0: 3de296a4
/model.23/cv3.1/cv3.1.1/cv3.1.1.0/conv/Conv_output_0: 3daaee86
/model.22/Split_output_0: 3d0f330a
/model.22/Split_output_1: 3d2768f3
/model.23/cv3.1/cv3.1.1/cv3.1.1.0/act/Sigmoid_output_0: 3c01113b
/model.22/m.0/cv1/conv/Conv_output_0: 3d4fd8f6
/model.22/m.0/cv2/conv/Conv_output_0: 3d9afc50
/model.23/cv3.1/cv3.1.1/cv3.1.1.0/act/Mul_output_0: 3d92c7d5
/model.22/m.0/cv1/act/Sigmoid_output_0: 3bf770dc
/model.22/m.0/cv2/act/Sigmoid_output_0: 3c00c071
/model.23/cv3.1/cv3.1.1/cv3.1.1.1/conv/Conv_output_0: 3d8b866d
/model.22/m.0/cv1/act/Mul_output_0: 3c308ff8
/model.22/m.0/cv2/act/Mul_output_0: 3d23f83d
/model.23/cv3.1/cv3.1.1/cv3.1.1.1/act/Sigmoid_output_0: 3c01f4a6
/model.22/m.0/m/m.0/cv1/conv/Conv_output_0: 3d7de5cd
/model.23/cv3.1/cv3.1.1/cv3.1.1.1/act/Mul_output_0: 3d3f5c66
/model.22/m.0/m/m.0/cv1/act/Sigmoid_output_0: 3c010704
/model.23/cv3.1/cv3.1.2/Conv_output_0: 3d929ebb
/model.22/m.0/m/m.0/cv1/act/Mul_output_0: 3c7fc26d
/model.23/Concat_1_output_0: 3de1e967
/model.22/m.0/m/m.0/cv2/conv/Conv_output_0: 3d82f3c7
/model.23/Reshape_1_output_0: 3de1e967
/model.22/m.0/m/m.0/cv2/act/Sigmoid_output_0: 3c008a06
/model.22/m.0/m/m.0/cv2/act/Mul_output_0: 3ce7186d
/model.22/m.0/m/m.0/Add_output_0: 3d307171
/model.23/Range_2_output_0: 3e9d4449
(Unnamed Layer* 493) [Shuffle]_output: 3c010a14
/model.23/Range_3_output_0: 3e9d4449
(Unnamed Layer* 502) [Shuffle]_output: 3c010a14
/model.22/m.0/m/m.1/cv1/conv/Conv_output_0: 3d7663f7
(Unnamed Layer* 505) [Shuffle]_output: 3b810a14
/model.23/Add_3_output_0: 3e9f4871
(Unnamed Layer* 507) [Shuffle]_output: 3b810a14
/model.23/Add_4_output_0: 3e9f4871
/model.22/m.0/m/m.1/cv1/act/Sigmoid_output_0: 3c10ca20
(Unnamed Layer* 511) [Constant]_output: 0
(Unnamed Layer* 512) [Shuffle]_output: 0
/model.23/ConstantOfShape_1_output_0: 0
/model.23/Reshape_10_output_0: 3e9f4871
/model.23/Reshape_11_output_0: 3e9f4871
/model.22/m.0/m/m.1/cv1/act/Mul_output_0: 3c90ab31
(Unnamed Layer* 520) [Shuffle]_output: 3e010a14
/model.23/Add_5_output_0: 3e010a14
/model.22/m.0/m/m.1/cv2/conv/Conv_output_0: 3da2e1c4
/model.23/Expand_2_output_0: 3e9f4871
/model.23/Expand_3_output_0: 3e9f4871
/model.22/m.0/m/m.1/cv2/act/Sigmoid_output_0: 3c1bc5ea
/model.23/Unsqueeze_6_output_0: 3e9f4871
/model.23/Unsqueeze_7_output_0: 3e9f4871
/model.22/m.0/m/m.1/cv2/act/Mul_output_0: 3d6a7ee8
/model.23/Concat_15_output_0: 3e9f4871
/model.22/m.0/m/m.1/Add_output_0: 3d99edf1
/model.23/Reshape_12_output_0: 3e9f4871
/model.22/m.0/Concat_output_0: 3d64dfb1
/model.22/m.0/cv3/conv/Conv_output_0: 3daff665
/model.22/m.0/cv3/act/Sigmoid_output_0: 3c03d927
/model.22/m.0/cv3/act/Mul_output_0: 3d004de1
/model.22/Concat_output_0: 3d27b308
/model.22/cv2/conv/Conv_output_0: 3d8da583
/model.22/cv2/act/Sigmoid_output_0: 3c0bdd41
/model.22/cv2/act/Mul_output_0: 3d138e3d
/model.23/cv2.2/cv2.2.0/conv/Conv_output_0: 3e035eee
/model.23/cv3.2/cv3.2.0/cv3.2.0.0/conv/Conv_output_0: 3d81c65d
/model.23/cv2.2/cv2.2.0/act/Sigmoid_output_0: 3c02ee0c
/model.23/cv3.2/cv3.2.0/cv3.2.0.0/act/Sigmoid_output_0: 3c020c2e
/model.23/cv2.2/cv2.2.0/act/Mul_output_0: 3d446b92
/model.23/cv3.2/cv3.2.0/cv3.2.0.0/act/Mul_output_0: 3d67663b
/model.23/cv2.2/cv2.2.1/conv/Conv_output_0: 3e1be414
/model.23/cv3.2/cv3.2.0/cv3.2.0.1/conv/Conv_output_0: 3d29d014
/model.23/cv2.2/cv2.2.1/act/Sigmoid_output_0: 3c010a14
/model.23/cv3.2/cv3.2.0/cv3.2.0.1/act/Sigmoid_output_0: 3c034335
/model.23/cv2.2/cv2.2.1/act/Mul_output_0: 3e10f2e4
/model.23/cv3.2/cv3.2.0/cv3.2.0.1/act/Mul_output_0: 3d011873
/model.23/cv2.2/cv2.2.2/Conv_output_0: 3dff187c
/model.23/cv3.2/cv3.2.1/cv3.2.1.0/conv/Conv_output_0: 3d567e76
/model.23/cv3.2/cv3.2.1/cv3.2.1.0/act/Sigmoid_output_0: 3c0935d4
/model.23/cv3.2/cv3.2.1/cv3.2.1.0/act/Mul_output_0: 3d24d178
/model.23/cv3.2/cv3.2.1/cv3.2.1.1/conv/Conv_output_0: 3d2c4667
/model.23/cv3.2/cv3.2.1/cv3.2.1.1/act/Sigmoid_output_0: 3c00f0c9
/model.23/cv3.2/cv3.2.1/cv3.2.1.1/act/Mul_output_0: 3cbf700f
/model.23/cv3.2/cv3.2.2/Conv_output_0: 3d758cdd
/model.23/Concat_2_output_0: 3de29141
/model.23/Reshape_2_output_0: 3de29141
/model.23/Concat_6_output_0: 3e09ff87
/model.23/Split_1_output_0: 3e0450f9
/model.23/Split_1_output_1: 3d996d4c
/model.23/Range_4_output_0: 3e193bf8
(Unnamed Layer* 616) [Shuffle]_output: 3c010a14
/model.23/Range_5_output_0: 3e193bf8
(Unnamed Layer* 625) [Shuffle]_output: 3c010a14
/model.23/Sigmoid_output_0: 392ed483
(Unnamed Layer* 629) [Shuffle]_output: 3b810a14
/model.23/Add_6_output_0: 3e1d4449
(Unnamed Layer* 631) [Shuffle]_output: 3b810a14
/model.23/Add_7_output_0: 3e1d4449
(Unnamed Layer* 636) [Constant]_output: 0
(Unnamed Layer* 637) [Shuffle]_output: 0
/model.23/ConstantOfShape_2_output_0: 0
/model.23/Reshape_15_output_0: 3e1d4449
/model.23/Reshape_16_output_0: 3e1d4449
(Unnamed Layer* 646) [Shuffle]_output: 3e810a14
/model.23/Add_8_output_0: 3e810a14
/model.23/Concat_23_output_0: 3e810a14
/model.23/dfl/Reshape_output_0: 3e0450f9
/model.23/Expand_4_output_0: 3e1d4449
/model.23/Expand_5_output_0: 3e1d4449
/model.23/Transpose_1_output_0: 3e810a14
/model.23/dfl/Transpose_output_0: 3e0450f9
/model.23/Unsqueeze_9_output_0: 3e1d4449
/model.23/Unsqueeze_10_output_0: 3e1d4449
(Unnamed Layer* 688) [Softmax]_output: 3bbc41cf
/model.23/Concat_20_output_0: 3e1d4449
/model.23/dfl/conv/Conv_output_0: 3dc1a2d1
/model.23/Reshape_17_output_0: 3e1d4449
/model.23/dfl/Reshape_1_output_0: 3dc1a2d1
/model.23/Concat_22_output_0: 3f204a85
/model.23/Slice_output_0: 3dbeaa8e
/model.23/Slice_1_output_0: 3dc1721b
/model.23/Transpose_output_0: 3f204a85
/model.23/Unsqueeze_12_output_0: 3f204a85
/model.23/Sub_output_0: 3f299e07
/model.23/Add_10_output_0: 3f21d87d
/model.23/Add_11_output_0: 3fa24c2e
/model.23/Sub_1_output_0: 3e25ec80
(Unnamed Layer* 761) [Shuffle]_output: 3c810a14
/model.23/Div_1_output_0: 3f224c2e
/model.23/Concat_24_output_0: 3f2092d2
(Unnamed Layer* 767) [Shuffle]_output: 3e810a14
/model.23/Mul_5_output_0: 40a455ca
output0: 40a455ca
