TRT-8502-EntropyCalibration2
images: 3bf42bfc
/model.0/conv/Conv_output_0: 3e5789d0
(Unnamed Layer* 1) [Constant]_output: 3e810a14
/model.23/Split_output_0: 3d810a14
/model.23/Split_output_1: 3e010a14
/model.23/Split_output_2: 3e810a14
/model.0/act/Sigmoid_output_0: 3c010a14
/model.0/act/Mul_output_0: 3d669fba
/model.1/conv/Conv_output_0: 3ea1de35
/model.1/act/Sigmoid_output_0: 3c010a14
/model.1/act/Mul_output_0: 3edc673f
/model.2/cv1/conv/Conv_output_0: 3e742ac3
/model.2/cv1/act/Sigmoid_output_0: 3c010a14
/model.2/cv1/act/Mul_output_0: 3de7f60c
/model.2/Split_output_0: 3de7f60c
/model.2/Split_output_1: 3dc63701
/model.2/m.0/cv1/conv/Conv_output_0: 3d5ab603
/model.2/m.0/cv1/act/Sigmoid_output_0: 3bf2f8de
/model.2/m.0/cv1/act/Mul_output_0: 3c0a1396
/model.2/m.0/cv2/conv/Conv_output_0: 3da38cfe
/model.2/m.0/cv2/act/Sigmoid_output_0: 3c010a14
/model.2/m.0/cv2/act/Mul_output_0: 3da2e105
/model.2/m.0/Add_output_0: 3dcaf138
/model.2/Concat_output_0: 3e19a464
/model.2/cv2/conv/Conv_output_0: 3e814842
/model.2/cv2/act/Sigmoid_output_0: 3c010a14
/model.2/cv2/act/Mul_output_0: 3d8ee2dc
/model.3/conv/Conv_output_0: 3dd6657d
/model.3/act/Sigmoid_output_0: 3c0152a4
/model.3/act/Mul_output_0: 3d354bf9
/model.4/cv1/conv/Conv_output_0: 3d567d50
/model.4/cv1/act/Sigmoid_output_0: 3c027dac
/model.4/cv1/act/Mul_output_0: 3d0de0f7
/model.4/Split_output_0: 3d0fe3cb
/model.4/Split_output_1: 3cd28428
/model.4/m.0/cv1/conv/Conv_output_0: 3cbb5d35
/model.4/m.0/cv1/act/Sigmoid_output_0: 3bfcb7d3
/model.4/m.0/cv1/act/Mul_output_0: 3cb0f063
/model.4/m.0/cv2/conv/Conv_output_0: 3d60f5bf
/model.4/m.0/cv2/act/Sigmoid_output_0: 3c081938
/model.4/m.0/cv2/act/Mul_output_0: 3d3e5a80
/model.4/m.0/Add_output_0: 3d7949bf
/model.4/Concat_output_0: 3d3ed516
/model.4/cv2/conv/Conv_output_0: 3d8efc60
/model.4/cv2/act/Sigmoid_output_0: 3c074917
/model.4/cv2/act/Mul_output_0: 3c9a6c62
/model.5/conv/Conv_output_0: 3d817611
/model.5/act/Sigmoid_output_0: 3c047b74
/model.5/act/Mul_output_0: 3cd389bc
/model.6/cv1/conv/Conv_output_0: 3d93df95
/model.6/cv1/act/Sigmoid_output_0: 3c029190
/model.6/cv1/act/Mul_output_0: 3d279402
/model.6/Split_output_0: 3d273a23
/model.6/Split_output_1: 3d274a5d
/model.6/m.0/cv1/conv/Conv_output_0: 3ce41764
/model.6/m.0/cv2/conv/Conv_output_0: 3dea409e
/model.6/m.0/cv1/act/Sigmoid_output_0: 3c05f0e7
/model.6/m.0/cv2/act/Sigmoid_output_0: 3c010a10
/model.6/m.0/cv1/act/Mul_output_0: 3cb32b52
/model.6/m.0/cv2/act/Mul_output_0: 3d2711e3
/model.6/m.0/m/m.0/cv1/conv/Conv_output_0: 3d48d244
/model.6/m.0/m/m.0/cv1/act/Sigmoid_output_0: 3c06191d
/model.6/m.0/m/m.0/cv1/act/Mul_output_0: 3ce8cd37
/model.6/m.0/m/m.0/cv2/conv/Conv_output_0: 3d5f9886
/model.6/m.0/m/m.0/cv2/act/Sigmoid_output_0: 3c091765
/model.6/m.0/m/m.0/cv2/act/Mul_output_0: 3d0fea43
/model.6/m.0/m/m.0/Add_output_0: 3d4ff1bb
/model.6/m.0/m/m.1/cv1/conv/Conv_output_0: 3d6db03e
/model.6/m.0/m/m.1/cv1/act/Sigmoid_output_0: 3c0ebb35
/model.6/m.0/m/m.1/cv1/act/Mul_output_0: 3cb2c509
/model.6/m.0/m/m.1/cv2/conv/Conv_output_0: 3d9e66f1
/model.6/m.0/m/m.1/cv2/act/Sigmoid_output_0: 3c1615c9
/model.6/m.0/m/m.1/cv2/act/Mul_output_0: 3d6738eb
/model.6/m.0/m/m.1/Add_output_0: 3dc0acb1
/model.6/m.0/Concat_output_0: 3d6a6c80
/model.6/m.0/cv3/conv/Conv_output_0: 3db03177
/model.6/m.0/cv3/act/Sigmoid_output_0: 3c05e229
/model.6/m.0/cv3/act/Mul_output_0: 3d0071c4
/model.6/Concat_output_0: 3d274a5d
/model.6/cv2/conv/Conv_output_0: 3d946457
/model.6/cv2/act/Sigmoid_output_0: 3c00eca8
/model.6/cv2/act/Mul_output_0: 3cc24037
/model.7/conv/Conv_output_0: 3dcbf565
/model.7/act/Sigmoid_output_0: 3c00c06f
/model.7/act/Mul_output_0: 3cb23427
/model.8/cv1/conv/Conv_output_0: 3dd54258
/model.8/cv1/act/Sigmoid_output_0: 3c01118e
/model.8/cv1/act/Mul_output_0: 3d2a0f31
/model.8/Split_output_0: 3d2a0f31
/model.8/Split_output_1: 3d020172
/model.8/m.0/cv1/conv/Conv_output_0: 3d733ff3
/model.8/m.0/cv2/conv/Conv_output_0: 3de7ace3
/model.8/m.0/cv1/act/Sigmoid_output_0: 3bff9c26
/model.8/m.0/cv2/act/Sigmoid_output_0: 3c012c2b
/model.8/m.0/cv1/act/Mul_output_0: 3ca541d7
/model.8/m.0/cv2/act/Mul_output_0: 3d43d458
/model.8/m.0/m/m.0/cv1/conv/Conv_output_0: 3dab793b
/model.8/m.0/m/m.0/cv1/act/Sigmoid_output_0: 3c0544de
/model.8/m.0/m/m.0/cv1/act/Mul_output_0: 3d1253ec
/model.8/m.0/m/m.0/cv2/conv/Conv_output_0: 3da7a594
/model.8/m.0/m/m.0/cv2/act/Sigmoid_output_0: 3c0946c1
/model.8/m.0/m/m.0/cv2/act/Mul_output_0: 3d280039
/model.8/m.0/m/m.0/Add_output_0: 3d7cd5b6
/model.8/m.0/m/m.1/cv1/conv/Conv_output_0: 3d895643
/model.8/m.0/m/m.1/cv1/act/Sigmoid_output_0: 3c09a0a8
/model.8/m.0/m/m.1/cv1/act/Mul_output_0: 3cc0a6a1
/model.8/m.0/m/m.1/cv2/conv/Conv_output_0: 3dbc80c6
/model.8/m.0/m/m.1/cv2/act/Sigmoid_output_0: 3c010c96
/model.8/m.0/m/m.1/cv2/act/Mul_output_0: 3d6693eb
/model.8/m.0/m/m.1/Add_output_0: 3dd05f44
/model.8/m.0/Concat_output_0: 3d6a7844
/model.8/m.0/cv3/conv/Conv_output_0: 3daa9de8
/model.8/m.0/cv3/act/Sigmoid_output_0: 3c00cbea
/model.8/m.0/cv3/act/Mul_output_0: 3d022c0c
/model.8/Concat_output_0: 3d2a0f31
/model.8/cv2/conv/Conv_output_0: 3de56e10
/model.8/cv2/act/Sigmoid_output_0: 3c0265be
/model.8/cv2/act/Mul_output_0: 3d12f4df
/model.9/cv1/conv/Conv_output_0: 3d89d0b1
/model.9/cv1/act/Sigmoid_output_0: 3c018765
/model.9/cv1/act/Mul_output_0: 3d8d64b8
/model.9/m/MaxPool_output_0: 3d8d64b8
/model.9/m_1/MaxPool_output_0: 3d8d64b8
/model.9/m_2/MaxPool_output_0: 3d8d64b8
/model.9/Concat_output_0: 3da988d9
/model.9/cv2/conv/Conv_output_0: 3db3997d
/model.9/cv2/act/Sigmoid_output_0: 3c079200
/model.9/cv2/act/Mul_output_0: 3ca72d36
/model.10/cv1/conv/Conv_output_0: 3dd571bb
/model.10/cv1/act/Sigmoid_output_0: 3c010b1e
/model.10/cv1/act/Mul_output_0: 3d257c26
/model.10/Split_output_0: 3d257c26
/model.10/Split_output_1: 3d249315
/model.10/m/m.0/attn/qkv/conv/Conv_output_0: 3d5fe706
/model.10/m/m.0/attn/Reshape_output_0: 3d5fe706
/model.10/m/m.0/attn/Split_output_0: 3d2251c2
/model.10/m/m.0/attn/Split_output_1: 3d811493
/model.10/m/m.0/attn/Split_output_2: 3d722177
/model.10/m/m.0/attn/Transpose_output_0: 3d2251c2
/model.10/m/m.0/attn/Reshape_2_output_0: 3d722177
/model.10/m/m.0/attn/MatMul_output_0: 3f851a23
/model.10/m/m.0/attn/pe/conv/Conv_output_0: 3d2fddab
(Unnamed Layer* 221) [Shuffle]_output: 3ab67d3d
/model.10/m/m.0/attn/Mul_1_output_0: 3e3c3c1c
(Unnamed Layer* 223) [Softmax]_output: 3a742991
/model.10/m/m.0/attn/Transpose_1_output_0: 3a742991
/model.10/m/m.0/attn/MatMul_1_output_0: 3d324bca
/model.10/m/m.0/attn/Reshape_1_output_0: 3d324bca
/model.10/m/m.0/attn/Add_output_0: 3d0941fd
/model.10/m/m.0/attn/proj/conv/Conv_output_0: 3d21f801
/model.10/m/m.0/Add_output_0: 3d61517e
/model.10/m/m.0/ffn/ffn.0/conv/Conv_output_0: 3d57cf17
/model.10/m/m.0/ffn/ffn.0/act/Sigmoid_output_0: 3bf7f98a
/model.10/m/m.0/ffn/ffn.0/act/Mul_output_0: 3c39f05f
/model.10/m/m.0/ffn/ffn.1/conv/Conv_output_0: 3d09d752
/model.10/m/m.0/Add_1_output_0: 3d79badd
/model.10/Concat_output_0: 3d257c26
/model.10/cv2/conv/Conv_output_0: 3d847fa5
/model.10/cv2/act/Sigmoid_output_0: 3c01bf21
/model.10/cv2/act/Mul_output_0: 3c910b64
/model.11/Resize_output_0: 3c910b64
/model.12/Concat_output_0: 3cc24037
/model.13/cv1/conv/Conv_output_0: 3d923e6c
/model.13/cv1/act/Sigmoid_output_0: 3c03b109
/model.13/cv1/act/Mul_output_0: 3cc25386
/model.13/Split_output_0: 3cc25386
/model.13/Split_output_1: 3ca629ef
/model.13/m.0/cv1/conv/Conv_output_0: 3d4ee7b8
/model.13/m.0/cv1/act/Sigmoid_output_0: 3c01fd04
/model.13/m.0/cv1/act/Mul_output_0: 3cd43375
/model.13/m.0/cv2/conv/Conv_output_0: 3da6d70d
/model.13/m.0/cv2/act/Sigmoid_output_0: 3c01d6a5
/model.13/m.0/cv2/act/Mul_output_0: 3d135161
/model.13/m.0/Add_output_0: 3d7e2023
/model.13/Concat_output_0: 3ce8b013
/model.13/cv2/conv/Conv_output_0: 3d8e0a45
/model.13/cv2/act/Sigmoid_output_0: 3c010154
/model.13/cv2/act/Mul_output_0: 3c51f209
/model.14/Resize_output_0: 3c51f209
/model.15/Concat_output_0: 3c9a6c62
/model.16/cv1/conv/Conv_output_0: 3d50bf70
/model.16/cv1/act/Sigmoid_output_0: 3c0bbcf1
/model.16/cv1/act/Mul_output_0: 3ca54fca
/model.16/Split_output_0: 3cc12231
/model.16/Split_output_1: 3c877e87
/model.16/m.0/cv1/conv/Conv_output_0: 3d1e5906
/model.16/m.0/cv1/act/Sigmoid_output_0: 3c022a8a
/model.16/m.0/cv1/act/Mul_output_0: 3cd1745e
/model.16/m.0/cv2/conv/Conv_output_0: 3d84509b
/model.16/m.0/cv2/act/Sigmoid_output_0: 3c06ecfe
/model.16/m.0/cv2/act/Mul_output_0: 3d114ed1
/model.16/m.0/Add_output_0: 3d3e73d3
/model.16/Concat_output_0: 3d024406
/model.16/cv2/conv/Conv_output_0: 3d81af72
/model.16/cv2/act/Sigmoid_output_0: 3c05b789
/model.16/cv2/act/Mul_output_0: 3cbfc161
/model.17/conv/Conv_output_0: 3d82e2e2
/model.23/cv2.0/cv2.0.0/conv/Conv_output_0: 3d915d9e
/model.23/cv3.0/cv3.0.0/cv3.0.0.0/conv/Conv_output_0: 3d826aa0
/model.17/act/Sigmoid_output_0: 3c0de820
/model.23/cv2.0/cv2.0.0/act/Sigmoid_output_0: 3bfe70a8
/model.23/cv3.0/cv3.0.0/cv3.0.0.0/act/Sigmoid_output_0: 3c015007
/model.17/act/Mul_output_0: 3cc19974
/model.23/cv2.0/cv2.0.0/act/Mul_output_0: 3ca63898
/model.23/cv3.0/cv3.0.0/cv3.0.0.0/act/Mul_output_0: 3d421936
/model.18/Concat_output_0: 3c910d32
/model.23/cv2.0/cv2.0.1/conv/Conv_output_0: 3e6ccaf6
/model.23/cv3.0/cv3.0.0/cv3.0.0.1/conv/Conv_output_0: 3da26a1f
/model.19/cv1/conv/Conv_output_0: 3dabd08d
/model.23/cv2.0/cv2.0.1/act/Sigmoid_output_0: 3c010a14
/model.23/cv3.0/cv3.0.0/cv3.0.0.1/act/Sigmoid_output_0: 3c031556
/model.19/cv1/act/Sigmoid_output_0: 3c020fe6
/model.23/cv2.0/cv2.0.1/act/Mul_output_0: 3e1a69a6
/model.23/cv3.0/cv3.0.0/cv3.0.0.1/act/Mul_output_0: 3d24543b
/model.19/cv1/act/Mul_output_0: 3cd24cf2
/model.23/cv2.0/cv2.0.2/Conv_output_0: 3e00a8f4
/model.23/cv3.0/cv3.0.1/cv3.0.1.0/conv/Conv_output_0: 3dd1f1a1
/model.19/Split_output_0: 3d2546c8
/model.19/Split_output_1: 3c9111bd
/model.23/cv3.0/cv3.0.1/cv3.0.1.0/act/Sigmoid_output_0: 3c03162a
/model.19/m.0/cv1/conv/Conv_output_0: 3d979077
/model.23/cv3.0/cv3.0.1/cv3.0.1.0/act/Mul_output_0: 3dbf16b8
/model.19/m.0/cv1/act/Sigmoid_output_0: 3c0bdad6
/model.23/cv3.0/cv3.0.1/cv3.0.1.1/conv/Conv_output_0: 3ddc33e2
/model.19/m.0/cv1/act/Mul_output_0: 3cc169d3
/model.23/cv3.0/cv3.0.1/cv3.0.1.1/act/Sigmoid_output_0: 3c02d5a9
/model.19/m.0/cv2/conv/Conv_output_0: 3dc1d7f1
/model.23/cv3.0/cv3.0.1/cv3.0.1.1/act/Mul_output_0: 3dc2b4ec
/model.19/m.0/cv2/act/Sigmoid_output_0: 3c1607f2
/model.23/cv3.0/cv3.0.2/Conv_output_0: 3dce7ff5
/model.19/m.0/cv2/act/Mul_output_0: 3d01be12
/model.23/Concat_output_0: 3deed353
/model.19/m.0/Add_output_0: 3d8edc31
/model.19/Concat_output_0: 3cfee6b6
/model.19/cv2/conv/Conv_output_0: 3dab8387
/model.19/cv2/act/Sigmoid_output_0: 3c02798d
/model.23/Range_output_0: 3f1f4871
(Unnamed Layer* 362) [Shuffle]_output: 3c010a14
/model.23/Range_1_output_0: 3f1f4871
(Unnamed Layer* 371) [Shuffle]_output: 3c010a14
/model.19/cv2/act/Mul_output_0: 3cd5529b
/model.23/Reshape_output_0: 3deed353
(Unnamed Layer* 376) [Shuffle]_output: 3b810a14
/model.23/Add_output_0: 3f204a85
(Unnamed Layer* 378) [Shuffle]_output: 3b810a14
/model.23/Add_1_output_0: 3f204a85
/model.20/conv/Conv_output_0: 3da7e44d
/model.23/cv2.1/cv2.1.0/conv/Conv_output_0: 3e02ac0e
/model.23/cv3.1/cv3.1.0/cv3.1.0.0/conv/Conv_output_0: 3da625c3
(Unnamed Layer* 385) [Constant]_output: 0
(Unnamed Layer* 386) [Shuffle]_output: 0
/model.23/ConstantOfShape_output_0: 0
/model.23/Reshape_5_output_0: 3f204a85
/model.23/Reshape_6_output_0: 3f204a85
/model.20/act/Sigmoid_output_0: 3c082d1c
/model.23/cv2.1/cv2.1.0/act/Sigmoid_output_0: 3c010851
/model.23/cv3.1/cv3.1.0/cv3.1.0.0/act/Sigmoid_output_0: 3c047dda
(Unnamed Layer* 396) [Shuffle]_output: 3d810a14
/model.23/Add_2_output_0: 3d810a14
/model.20/act/Mul_output_0: 3d12da3c
/model.23/cv2.1/cv2.1.0/act/Mul_output_0: 3d275690
/model.23/cv3.1/cv3.1.0/cv3.1.0.0/act/Mul_output_0: 3d3e3510
/model.23/Expand_output_0: 3f204a85
/model.23/Expand_1_output_0: 3f204a85
/model.21/Concat_output_0: 3ceb332b
/model.23/cv2.1/cv2.1.1/conv/Conv_output_0: 3e45deb6
/model.23/cv3.1/cv3.1.0/cv3.1.0.1/conv/Conv_output_0: 3daea76f
/model.23/Unsqueeze_3_output_0: 3f204a85
/model.23/Unsqueeze_4_output_0: 3f204a85
/model.22/cv1/conv/Conv_output_0: 3db44e15
/model.23/cv2.1/cv2.1.1/act/Sigmoid_output_0: 3c010a14
/model.23/cv3.1/cv3.1.0/cv3.1.0.1/act/Sigmoid_output_0: 3c0409c2
/model.23/Concat_10_output_0: 3f204a85
/model.22/cv1/act/Sigmoid_output_0: 3c094c30
/model.23/cv2.1/cv2.1.1/act/Mul_output_0: 3e0f4900
/model.23/cv3.1/cv3.1.0/cv3.1.0.1/act/Mul_output_0: 3d40d97e
/model.23/Reshape_7_output_0: 3f204a85
/model.22/cv1/act/Mul_output_0: 3d291e9d
/model.23/cv2.1/cv2.1.2/Conv_output_0: 3df6a2d1
/model.23/cv3.1/cv3.1.1/cv3.1.1.0/conv/Conv_output_0: 3de59c3c
/model.22/Split_output_0: 3d019870
/model.22/Split_output_1: 3d291e9d
/model.23/cv3.1/cv3.1.1/cv3.1.1.0/act/Sigmoid_output_0: 3c02d577
/model.22/m.0/cv1/conv/Conv_output_0: 3d1d249a
/model.22/m.0/cv2/conv/Conv_output_0: 3db54605
/model.23/cv3.1/cv3.1.1/cv3.1.1.0/act/Mul_output_0: 3db9c410
/model.22/m.0/cv1/act/Sigmoid_output_0: 3c0253ce
/model.22/m.0/cv2/act/Sigmoid_output_0: 3c081fd9
/model.23/cv3.1/cv3.1.1/cv3.1.1.1/conv/Conv_output_0: 3defc7df
/model.22/m.0/cv1/act/Mul_output_0: 3c677638
/model.22/m.0/cv2/act/Mul_output_0: 3d25ed27
/model.23/cv3.1/cv3.1.1/cv3.1.1.1/act/Sigmoid_output_0: 3c01d36e
/model.22/m.0/m/m.0/cv1/conv/Conv_output_0: 3da63721
/model.23/cv3.1/cv3.1.1/cv3.1.1.1/act/Mul_output_0: 3dbffdf1
/model.22/m.0/m/m.0/cv1/act/Sigmoid_output_0: 3c03244f
/model.23/cv3.1/cv3.1.2/Conv_output_0: 3dd38572
/model.22/m.0/m/m.0/cv1/act/Mul_output_0: 3c78b676
/model.23/Concat_1_output_0: 3de8319d
/model.22/m.0/m/m.0/cv2/conv/Conv_output_0: 3d9da612
/model.23/Reshape_1_output_0: 3de8319d
/model.22/m.0/m/m.0/cv2/act/Sigmoid_output_0: 3c01c770
/model.22/m.0/m/m.0/cv2/act/Mul_output_0: 3cec1bf1
/model.22/m.0/m/m.0/Add_output_0: 3d7e0e30
/model.23/Range_2_output_0: 3e9d4449
(Unnamed Layer* 493) [Shuffle]_output: 3c010a14
/model.23/Range_3_output_0: 3e9d4449
(Unnamed Layer* 502) [Shuffle]_output: 3c010a14
/model.22/m.0/m/m.1/cv1/conv/Conv_output_0: 3d9b1d60
(Unnamed Layer* 505) [Shuffle]_output: 3b810a14
/model.23/Add_3_output_0: 3e9f4871
(Unnamed Layer* 507) [Shuffle]_output: 3b810a14
/model.23/Add_4_output_0: 3e9f4871
/model.22/m.0/m/m.1/cv1/act/Sigmoid_output_0: 3c0189e8
(Unnamed Layer* 511) [Constant]_output: 0
(Unnamed Layer* 512) [Shuffle]_output: 0
/model.23/ConstantOfShape_1_output_0: 0
/model.23/Reshape_10_output_0: 3e9f4871
/model.23/Reshape_11_output_0: 3e9f4871
/model.22/m.0/m/m.1/cv1/act/Mul_output_0: 3c92467b
(Unnamed Layer* 520) [Shuffle]_output: 3e010a14
/model.23/Add_5_output_0: 3e010a14
/model.22/m.0/m/m.1/cv2/conv/Conv_output_0: 3dc7d407
/model.23/Expand_2_output_0: 3e9f4871
/model.23/Expand_3_output_0: 3e9f4871
/model.22/m.0/m/m.1/cv2/act/Sigmoid_output_0: 3c010d4c
/model.23/Unsqueeze_6_output_0: 3e9f4871
/model.23/Unsqueeze_7_output_0: 3e9f4871
/model.22/m.0/m/m.1/cv2/act/Mul_output_0: 3d6ac14d
/model.23/Concat_15_output_0: 3e9f4871
/model.22/m.0/m/m.1/Add_output_0: 3dbdfe1e
/model.23/Reshape_12_output_0: 3e9f4871
/model.22/m.0/Concat_output_0: 3d916601
/model.22/m.0/cv3/conv/Conv_output_0: 3dc5df56
/model.22/m.0/cv3/act/Sigmoid_output_0: 3c03e5bb
/model.22/m.0/cv3/act/Mul_output_0: 3d132983
/model.22/Concat_output_0: 3d291e9d
/model.22/cv2/conv/Conv_output_0: 3dc2cb08
/model.22/cv2/act/Sigmoid_output_0: 3c02ca46
/model.22/cv2/act/Mul_output_0: 3ce7cfc8
/model.23/cv2.2/cv2.2.0/conv/Conv_output_0: 3dc954c8
/model.23/cv3.2/cv3.2.0/cv3.2.0.0/conv/Conv_output_0: 3d8022fd
/model.23/cv2.2/cv2.2.0/act/Sigmoid_output_0: 3c01db86
/model.23/cv3.2/cv3.2.0/cv3.2.0.0/act/Sigmoid_output_0: 3c03035b
/model.23/cv2.2/cv2.2.0/act/Mul_output_0: 3d257d32
/model.23/cv3.2/cv3.2.0/cv3.2.0.0/act/Mul_output_0: 3d10f3f6
/model.23/cv2.2/cv2.2.1/conv/Conv_output_0: 3e1dd512
/model.23/cv3.2/cv3.2.0/cv3.2.0.1/conv/Conv_output_0: 3d371b48
/model.23/cv2.2/cv2.2.1/act/Sigmoid_output_0: 3c011223
/model.23/cv3.2/cv3.2.0/cv3.2.0.1/act/Sigmoid_output_0: 3c00ce32
/model.23/cv2.2/cv2.2.1/act/Mul_output_0: 3dc8504e
/model.23/cv3.2/cv3.2.0/cv3.2.0.1/act/Mul_output_0: 3ca4bba7
/model.23/cv2.2/cv2.2.2/Conv_output_0: 3de1a0aa
/model.23/cv3.2/cv3.2.1/cv3.2.1.0/conv/Conv_output_0: 3d74d135
/model.23/cv3.2/cv3.2.1/cv3.2.1.0/act/Sigmoid_output_0: 3c08987e
/model.23/cv3.2/cv3.2.1/cv3.2.1.0/act/Mul_output_0: 3d22b228
/model.23/cv3.2/cv3.2.1/cv3.2.1.1/conv/Conv_output_0: 3d82a4ed
/model.23/cv3.2/cv3.2.1/cv3.2.1.1/act/Sigmoid_output_0: 3c01d48d
/model.23/cv3.2/cv3.2.1/cv3.2.1.1/act/Mul_output_0: 3cbf8dd3
/model.23/cv3.2/cv3.2.2/Conv_output_0: 3d9992c7
/model.23/Concat_2_output_0: 3dc7e42a
/model.23/Reshape_2_output_0: 3dc7e42a
/model.23/Concat_6_output_0: 3deed353
/model.23/Split_1_output_0: 3e00a8f4
/model.23/Split_1_output_1: 3dd33b97
/model.23/Range_4_output_0: 3e193bf8
(Unnamed Layer* 616) [Shuffle]_output: 3c010a14
/model.23/Range_5_output_0: 3e193bf8
(Unnamed Layer* 625) [Shuffle]_output: 3c010a14
/model.23/Sigmoid_output_0: 3bf96df8
(Unnamed Layer* 629) [Shuffle]_output: 3b810a14
/model.23/Add_6_output_0: 3e1d4449
(Unnamed Layer* 631) [Shuffle]_output: 3b810a14
/model.23/Add_7_output_0: 3e1d4449
(Unnamed Layer* 636) [Constant]_output: 0
(Unnamed Layer* 637) [Shuffle]_output: 0
/model.23/ConstantOfShape_2_output_0: 0
/model.23/Reshape_15_output_0: 3e1d4449
/model.23/Reshape_16_output_0: 3e1d4449
(Unnamed Layer* 646) [Shuffle]_output: 3e810a14
/model.23/Add_8_output_0: 3e810a14
/model.23/Concat_23_output_0: 3e810a14
/model.23/dfl/Reshape_output_0: 3e00a8f4
/model.23/Expand_4_output_0: 3e1d4449
/model.23/Expand_5_output_0: 3e1d4449
/model.23/Transpose_1_output_0: 3e810a14
/model.23/dfl/Transpose_output_0: 3e00a8f4
/model.23/Unsqueeze_9_output_0: 3e1d4449
/model.23/Unsqueeze_10_output_0: 3e1d4449
(Unnamed Layer* 688) [Softmax]_output: 3bb7dffa
/model.23/Concat_20_output_0: 3e1d4449
/model.23/dfl/conv/Conv_output_0: 3dbc6199
/model.23/Reshape_17_output_0: 3e1d4449
/model.23/dfl/Reshape_1_output_0: 3dbc6199
/model.23/Concat_22_output_0: 3f204a85
/model.23/Slice_output_0: 3da78cb7
/model.23/Slice_1_output_0: 3daf5714
/model.23/Transpose_output_0: 3f204a85
/model.23/Unsqueeze_12_output_0: 3f204a85
/model.23/Sub_output_0: 3f205d61
/model.23/Add_10_output_0: 3f21ab0a
/model.23/Add_11_output_0: 3fa3ec8f
/model.23/Sub_1_output_0: 3e1f6d6d
(Unnamed Layer* 761) [Shuffle]_output: 3c810a14
/model.23/Div_1_output_0: 3f23ec8f
/model.23/Concat_24_output_0: 3f23ec8f
(Unnamed Layer* 767) [Shuffle]_output: 3e810a14
/model.23/Mul_5_output_0: 40ba080e
output0: 40ba080e
