TRT-8502-EntropyCalibration2
images: 3bf00bc4
/model.0/conv/Conv_output_0: 3dccf228
(Unnamed Layer* 1) [Constant]_output: 3e810a14
/model.23/Split_output_0: 3d810a14
/model.23/Split_output_1: 3e010a14
/model.23/Split_output_2: 3e810a14
/model.0/act/Sigmoid_output_0: 3c010a14
/model.0/act/Mul_output_0: 3d675688
/model.1/conv/Conv_output_0: 3e4f03c6
/model.1/act/Sigmoid_output_0: 3c010a14
/model.1/act/Mul_output_0: 3e69c288
/model.2/cv1/conv/Conv_output_0: 3e796ce1
/model.2/cv1/act/Sigmoid_output_0: 3c010a14
/model.2/cv1/act/Mul_output_0: 3dc57ab6
/model.2/Split_output_0: 3dc2a0ad
/model.2/Split_output_1: 3db657a7
/model.2/m.0/cv1/conv/Conv_output_0: 3cc5f3ad
/model.2/m.0/cv1/act/Sigmoid_output_0: 3be4a0d9
/model.2/m.0/cv1/act/Mul_output_0: 3c3762a8
/model.2/m.0/cv2/conv/Conv_output_0: 3d9ec808
/model.2/m.0/cv2/act/Sigmoid_output_0: 3c010a14
/model.2/m.0/cv2/act/Mul_output_0: 3d9ec808
/model.2/m.0/Add_output_0: 3e020887
/model.2/Concat_output_0: 3dcc9bcb
/model.2/cv2/conv/Conv_output_0: 3e2ac8e7
/model.2/cv2/act/Sigmoid_output_0: 3c010a14
/model.2/cv2/act/Mul_output_0: 3d70c633
/model.3/conv/Conv_output_0: 3d703dc7
/model.3/act/Sigmoid_output_0: 3c01f3e6
/model.3/act/Mul_output_0: 3d0ff047
/model.4/cv1/conv/Conv_output_0: 3d2348bc
/model.4/cv1/act/Sigmoid_output_0: 3c025fa3
/model.4/cv1/act/Mul_output_0: 3cbe9b66
/model.4/Split_output_0: 3ca4aaf5
/model.4/Split_output_1: 3c82f362
/model.4/m.0/cv1/conv/Conv_output_0: 3cbbe622
/model.4/m.0/cv1/act/Sigmoid_output_0: 3bf431d2
/model.4/m.0/cv1/act/Mul_output_0: 3c72453f
/model.4/m.0/cv2/conv/Conv_output_0: 3d385616
/model.4/m.0/cv2/act/Sigmoid_output_0: 3c008ea4
/model.4/m.0/cv2/act/Mul_output_0: 3d21d481
/model.4/m.0/Add_output_0: 3d2853a6
/model.4/Concat_output_0: 3d0fdebd
/model.4/cv2/conv/Conv_output_0: 3d8b7fdc
/model.4/cv2/act/Sigmoid_output_0: 3bf8f701
/model.4/cv2/act/Mul_output_0: 3c888fcf
/model.5/conv/Conv_output_0: 3d533d79
/model.5/act/Sigmoid_output_0: 3c0a9c58
/model.5/act/Mul_output_0: 3cc2e1ac
/model.6/cv1/conv/Conv_output_0: 3d8138d2
/model.6/cv1/act/Sigmoid_output_0: 3c01f36c
/model.6/cv1/act/Mul_output_0: 3d0197a1
/model.6/Split_output_0: 3ca697f8
/model.6/Split_output_1: 3cb15002
/model.6/m.0/cv1/conv/Conv_output_0: 3cb4d23d
/model.6/m.0/cv2/conv/Conv_output_0: 3d8fc744
/model.6/m.0/cv1/act/Sigmoid_output_0: 3bf81d1a
/model.6/m.0/cv2/act/Sigmoid_output_0: 3c03b625
/model.6/m.0/cv1/act/Mul_output_0: 3ca435c5
/model.6/m.0/cv2/act/Mul_output_0: 3d147e53
/model.6/m.0/m/m.0/cv1/conv/Conv_output_0: 3d4d8464
/model.6/m.0/m/m.0/cv1/act/Sigmoid_output_0: 3bfcf37f
/model.6/m.0/m/m.0/cv1/act/Mul_output_0: 3ce78724
/model.6/m.0/m/m.0/cv2/conv/Conv_output_0: 3d49392f
/model.6/m.0/m/m.0/cv2/act/Sigmoid_output_0: 3c01a95a
/model.6/m.0/m/m.0/cv2/act/Mul_output_0: 3d124fc3
/model.6/m.0/m/m.0/Add_output_0: 3d645e32
/model.6/m.0/m/m.1/cv1/conv/Conv_output_0: 3d4190fc
/model.6/m.0/m/m.1/cv1/act/Sigmoid_output_0: 3c0d07ad
/model.6/m.0/m/m.1/cv1/act/Mul_output_0: 3c91b7c8
/model.6/m.0/m/m.1/cv2/conv/Conv_output_0: 3d820c6c
/model.6/m.0/m/m.1/cv2/act/Sigmoid_output_0: 3c00e9a4
/model.6/m.0/m/m.1/cv2/act/Mul_output_0: 3d42f5d0
/model.6/m.0/m/m.1/Add_output_0: 3da9da81
/model.6/m.0/Concat_output_0: 3d9288fd
/model.6/m.0/cv3/conv/Conv_output_0: 3d9fbad1
/model.6/m.0/cv3/act/Sigmoid_output_0: 3c00e811
/model.6/m.0/cv3/act/Mul_output_0: 3cea6f12
/model.6/Concat_output_0: 3d0197a1
/model.6/cv2/conv/Conv_output_0: 3d608074
/model.6/cv2/act/Sigmoid_output_0: 3c0150ea
/model.6/cv2/act/Mul_output_0: 3c9b3e1f
/model.7/conv/Conv_output_0: 3d8a8026
/model.7/act/Sigmoid_output_0: 3c01d568
/model.7/act/Mul_output_0: 3c99d41d
/model.8/cv1/conv/Conv_output_0: 3daaa9d1
/model.8/cv1/act/Sigmoid_output_0: 3c0be376
/model.8/cv1/act/Mul_output_0: 3cd3886c
/model.8/Split_output_0: 3cd3886c
/model.8/Split_output_1: 3cc2c364
/model.8/m.0/cv1/conv/Conv_output_0: 3d3dc61c
/model.8/m.0/cv2/conv/Conv_output_0: 3e001bc4
/model.8/m.0/cv1/act/Sigmoid_output_0: 3c049902
/model.8/m.0/cv2/act/Sigmoid_output_0: 3c0f4c54
/model.8/m.0/cv1/act/Mul_output_0: 3c803da7
/model.8/m.0/cv2/act/Mul_output_0: 3d121087
/model.8/m.0/m/m.0/cv1/conv/Conv_output_0: 3da0edf4
/model.8/m.0/m/m.0/cv1/act/Sigmoid_output_0: 3c0d059d
/model.8/m.0/m/m.0/cv1/act/Mul_output_0: 3d01129e
/model.8/m.0/m/m.0/cv2/conv/Conv_output_0: 3d9b608d
/model.8/m.0/m/m.0/cv2/act/Sigmoid_output_0: 3c00f019
/model.8/m.0/m/m.0/cv2/act/Mul_output_0: 3d462048
/model.8/m.0/m/m.0/Add_output_0: 3d8f1588
/model.8/m.0/m/m.1/cv1/conv/Conv_output_0: 3dab6841
/model.8/m.0/m/m.1/cv1/act/Sigmoid_output_0: 3c00425a
/model.8/m.0/m/m.1/cv1/act/Mul_output_0: 3d11d178
/model.8/m.0/m/m.1/cv2/conv/Conv_output_0: 3dcb67f3
/model.8/m.0/m/m.1/cv2/act/Sigmoid_output_0: 3c0e4bda
/model.8/m.0/m/m.1/cv2/act/Mul_output_0: 3d92f676
/model.8/m.0/m/m.1/Add_output_0: 3dbf2065
/model.8/m.0/Concat_output_0: 3d9232af
/model.8/m.0/cv3/conv/Conv_output_0: 3da9ea53
/model.8/m.0/cv3/act/Sigmoid_output_0: 3c093ec7
/model.8/m.0/cv3/act/Mul_output_0: 3cd3d1db
/model.8/Concat_output_0: 3cd3886c
/model.8/cv2/conv/Conv_output_0: 3dee49dc
/model.8/cv2/act/Sigmoid_output_0: 3c010716
/model.8/cv2/act/Mul_output_0: 3ce80c07
/model.9/cv1/conv/Conv_output_0: 3d919768
/model.9/cv1/act/Sigmoid_output_0: 3c00e65d
/model.9/cv1/act/Mul_output_0: 3d8f6912
/model.9/m/MaxPool_output_0: 3d8f6912
/model.9/m_1/MaxPool_output_0: 3d8f6912
/model.9/m_2/MaxPool_output_0: 3d8f6912
/model.9/Concat_output_0: 3db33f55
/model.9/cv2/conv/Conv_output_0: 3da82259
/model.9/cv2/act/Sigmoid_output_0: 3bfd53b0
/model.9/cv2/act/Mul_output_0: 3c9ab489
/model.10/cv1/conv/Conv_output_0: 3dc288d4
/model.10/cv1/act/Sigmoid_output_0: 3c0417b9
/model.10/cv1/act/Mul_output_0: 3d27bd00
/model.10/Split_output_0: 3d44b30a
/model.10/Split_output_1: 3d25f977
/model.10/m/m.0/attn/qkv/conv/Conv_output_0: 3da7c380
/model.10/m/m.0/attn/Reshape_output_0: 3da7c380
/model.10/m/m.0/attn/Split_output_0: 3d5993ab
/model.10/m/m.0/attn/Split_output_1: 3db85bc9
/model.10/m/m.0/attn/Split_output_2: 3d8ec903
/model.10/m/m.0/attn/Transpose_output_0: 3d5993ab
/model.10/m/m.0/attn/Reshape_2_output_0: 3d8ec903
/model.10/m/m.0/attn/MatMul_output_0: 3f9b07c5
/model.10/m/m.0/attn/pe/conv/Conv_output_0: 3d5da5aa
(Unnamed Layer* 221) [Shuffle]_output: 3ab67d3d
/model.10/m/m.0/attn/Mul_1_output_0: 3e5b3efb
(Unnamed Layer* 223) [Softmax]_output: 3aa87fa3
/model.10/m/m.0/attn/Transpose_1_output_0: 3aa87fa3
/model.10/m/m.0/attn/MatMul_1_output_0: 3d78d3db
/model.10/m/m.0/attn/Reshape_1_output_0: 3d78d3db
/model.10/m/m.0/attn/Add_output_0: 3d8355f5
/model.10/m/m.0/attn/proj/conv/Conv_output_0: 3d62a726
/model.10/m/m.0/Add_output_0: 3dd6dff0
/model.10/m/m.0/ffn/ffn.0/conv/Conv_output_0: 3d9bd94d
/model.10/m/m.0/ffn/ffn.0/act/Sigmoid_output_0: 3c00ffb1
/model.10/m/m.0/ffn/ffn.0/act/Mul_output_0: 3ceb102d
/model.10/m/m.0/ffn/ffn.1/conv/Conv_output_0: 3dcf015d
/model.10/m/m.0/Add_1_output_0: 3e1161fd
/model.10/Concat_output_0: 3d663c78
/model.10/cv2/conv/Conv_output_0: 3df7fe00
/model.10/cv2/act/Sigmoid_output_0: 3c0855b1
/model.10/cv2/act/Mul_output_0: 3cb3da36
/model.11/Resize_output_0: 3cb3da36
/model.12/Concat_output_0: 3cb3da36
/model.13/cv1/conv/Conv_output_0: 3d9cfb76
/model.13/cv1/act/Sigmoid_output_0: 3c02f223
/model.13/cv1/act/Mul_output_0: 3cd53db2
/model.13/Split_output_0: 3cd53db2
/model.13/Split_output_1: 3c901810
/model.13/m.0/cv1/conv/Conv_output_0: 3d39d505
/model.13/m.0/cv1/act/Sigmoid_output_0: 3c020d49
/model.13/m.0/cv1/act/Mul_output_0: 3c8988ef
/model.13/m.0/cv2/conv/Conv_output_0: 3d79bd26
/model.13/m.0/cv2/act/Sigmoid_output_0: 3c00dcf3
/model.13/m.0/cv2/act/Mul_output_0: 3ce92196
/model.13/m.0/Add_output_0: 3d3ec3e3
/model.13/Concat_output_0: 3cd53db2
/model.13/cv2/conv/Conv_output_0: 3d57ba8c
/model.13/cv2/act/Sigmoid_output_0: 3bfc4452
/model.13/cv2/act/Mul_output_0: 3c8163cf
/model.14/Resize_output_0: 3c8163cf
/model.15/Concat_output_0: 3c888fcf
/model.16/cv1/conv/Conv_output_0: 3d3453c8
/model.16/cv1/act/Sigmoid_output_0: 3bfcd90c
/model.16/cv1/act/Mul_output_0: 3c90bb97
/model.16/Split_output_0: 3cc0cfbc
/model.16/Split_output_1: 3c911daa
/model.16/m.0/cv1/conv/Conv_output_0: 3d23f276
/model.16/m.0/cv1/act/Sigmoid_output_0: 3c01521c
/model.16/m.0/cv1/act/Mul_output_0: 3cd43686
/model.16/m.0/cv2/conv/Conv_output_0: 3d6fe595
/model.16/m.0/cv2/act/Sigmoid_output_0: 3c070de5
/model.16/m.0/cv2/act/Mul_output_0: 3ce9f63a
/model.16/m.0/Add_output_0: 3d310ebf
/model.16/Concat_output_0: 3ce932a4
/model.16/cv2/conv/Conv_output_0: 3d5fe956
/model.16/cv2/act/Sigmoid_output_0: 3c071960
/model.16/cv2/act/Mul_output_0: 3cd4ed04
/model.17/conv/Conv_output_0: 3d8217bd
/model.23/cv2.0/cv2.0.0/conv/Conv_output_0: 3d7edfdb
/model.23/cv3.0/cv3.0.0/cv3.0.0.0/conv/Conv_output_0: 3d49063b
/model.17/act/Sigmoid_output_0: 3c017396
/model.23/cv2.0/cv2.0.0/act/Sigmoid_output_0: 3c087e19
/model.23/cv3.0/cv3.0.0/cv3.0.0.0/act/Sigmoid_output_0: 3bfeb0cb
/model.17/act/Mul_output_0: 3c1d2aaa
/model.23/cv2.0/cv2.0.0/act/Mul_output_0: 3c90d05b
/model.23/cv3.0/cv3.0.0/cv3.0.0.0/act/Mul_output_0: 3d12124b
/model.18/Concat_output_0: 3c561453
/model.23/cv2.0/cv2.0.1/conv/Conv_output_0: 3e6f7411
/model.23/cv3.0/cv3.0.0/cv3.0.0.1/conv/Conv_output_0: 3da2b7ec
/model.19/cv1/conv/Conv_output_0: 3d7900ed
/model.23/cv2.0/cv2.0.1/act/Sigmoid_output_0: 3c010a14
/model.23/cv3.0/cv3.0.0/cv3.0.0.1/act/Sigmoid_output_0: 3c0111f2
/model.19/cv1/act/Sigmoid_output_0: 3c0408ca
/model.23/cv2.0/cv2.0.1/act/Mul_output_0: 3e13c7d6
/model.23/cv3.0/cv3.0.0/cv3.0.0.1/act/Mul_output_0: 3d017428
/model.19/cv1/act/Mul_output_0: 3c6bea21
/model.23/cv2.0/cv2.0.2/Conv_output_0: 3df12856
/model.23/cv3.0/cv3.0.1/cv3.0.1.0/conv/Conv_output_0: 3dc55464
/model.19/Split_output_0: 3d1324d3
/model.19/Split_output_1: 3c6835e3
/model.23/cv3.0/cv3.0.1/cv3.0.1.0/act/Sigmoid_output_0: 3c0aa549
/model.19/m.0/cv1/conv/Conv_output_0: 3d603804
/model.23/cv3.0/cv3.0.1/cv3.0.1.0/act/Mul_output_0: 3dc74bf9
/model.19/m.0/cv1/act/Sigmoid_output_0: 3c015053
/model.23/cv3.0/cv3.0.1/cv3.0.1.1/conv/Conv_output_0: 3ddab7c8
/model.19/m.0/cv1/act/Mul_output_0: 3c9ad9f9
/model.23/cv3.0/cv3.0.1/cv3.0.1.1/act/Sigmoid_output_0: 3c01d3a2
/model.19/m.0/cv2/conv/Conv_output_0: 3d9d3ee4
/model.23/cv3.0/cv3.0.1/cv3.0.1.1/act/Mul_output_0: 3dbf4ea8
/model.19/m.0/cv2/act/Sigmoid_output_0: 3c024ec2
/model.23/cv3.0/cv3.0.2/Conv_output_0: 3db77eac
/model.19/m.0/cv2/act/Mul_output_0: 3cbfcc12
/model.23/Concat_output_0: 3de54335
/model.19/m.0/Add_output_0: 3d661aa2
/model.19/Concat_output_0: 3cc08725
/model.19/cv2/conv/Conv_output_0: 3d8dda09
/model.19/cv2/act/Sigmoid_output_0: 3c01020e
/model.23/Range_output_0: 3f1f4871
(Unnamed Layer* 362) [Shuffle]_output: 3c010a14
/model.23/Range_1_output_0: 3f1f4871
(Unnamed Layer* 371) [Shuffle]_output: 3c010a14
/model.19/cv2/act/Mul_output_0: 3cb3d6a3
/model.23/Reshape_output_0: 3de54335
(Unnamed Layer* 376) [Shuffle]_output: 3b810a14
/model.23/Add_output_0: 3f204a85
(Unnamed Layer* 378) [Shuffle]_output: 3b810a14
/model.23/Add_1_output_0: 3f204a85
/model.20/conv/Conv_output_0: 3d89149f
/model.23/cv2.1/cv2.1.0/conv/Conv_output_0: 3def33b9
/model.23/cv3.1/cv3.1.0/cv3.1.0.0/conv/Conv_output_0: 3d675566
(Unnamed Layer* 385) [Constant]_output: 0
(Unnamed Layer* 386) [Shuffle]_output: 0
/model.23/ConstantOfShape_output_0: 0
/model.23/Reshape_5_output_0: 3f204a85
/model.23/Reshape_6_output_0: 3f204a85
/model.20/act/Sigmoid_output_0: 3c137143
/model.23/cv2.1/cv2.1.0/act/Sigmoid_output_0: 3c063a95
/model.23/cv3.1/cv3.1.0/cv3.1.0.0/act/Sigmoid_output_0: 3c0539ef
(Unnamed Layer* 396) [Shuffle]_output: 3d810a14
/model.23/Add_2_output_0: 3d810a14
/model.20/act/Mul_output_0: 3cc3741e
/model.23/cv2.1/cv2.1.0/act/Mul_output_0: 3d146bd8
/model.23/cv3.1/cv3.1.0/cv3.1.0.0/act/Mul_output_0: 3d010564
/model.23/Expand_output_0: 3f204a85
/model.23/Expand_1_output_0: 3f204a85
/model.21/Concat_output_0: 3cc3741e
/model.23/cv2.1/cv2.1.1/conv/Conv_output_0: 3e35b246
/model.23/cv3.1/cv3.1.0/cv3.1.0.1/conv/Conv_output_0: 3d88a984
/model.23/Unsqueeze_3_output_0: 3f204a85
/model.23/Unsqueeze_4_output_0: 3f204a85
/model.22/cv1/conv/Conv_output_0: 3da9f516
/model.23/cv2.1/cv2.1.1/act/Sigmoid_output_0: 3c010a14
/model.23/cv3.1/cv3.1.0/cv3.1.0.1/act/Sigmoid_output_0: 3c01096f
/model.23/Concat_10_output_0: 3f204a85
/model.22/cv1/act/Sigmoid_output_0: 3c00c919
/model.23/cv2.1/cv2.1.1/act/Mul_output_0: 3dcac404
/model.23/cv3.1/cv3.1.0/cv3.1.0.1/act/Mul_output_0: 3cc1d663
/model.23/Reshape_7_output_0: 3f204a85
/model.22/cv1/act/Mul_output_0: 3cc241ac
/model.23/cv2.1/cv2.1.2/Conv_output_0: 3dc424fd
/model.23/cv3.1/cv3.1.1/cv3.1.1.0/conv/Conv_output_0: 3d8dca85
/model.22/Split_output_0: 3d021a25
/model.22/Split_output_1: 3cc241ac
/model.23/cv3.1/cv3.1.1/cv3.1.1.0/act/Sigmoid_output_0: 3c0e8d19
/model.22/m.0/cv1/conv/Conv_output_0: 3d018dfc
/model.22/m.0/cv2/conv/Conv_output_0: 3d65edcf
/model.23/cv3.1/cv3.1.1/cv3.1.1.0/act/Mul_output_0: 3cf2c4fd
/model.22/m.0/cv1/act/Sigmoid_output_0: 3bea239b
/model.22/m.0/cv2/act/Sigmoid_output_0: 3c00ae90
/model.23/cv3.1/cv3.1.1/cv3.1.1.1/conv/Conv_output_0: 3d9c3271
/model.22/m.0/cv1/act/Mul_output_0: 3c14db7c
/model.22/m.0/cv2/act/Mul_output_0: 3d122548
/model.23/cv3.1/cv3.1.1/cv3.1.1.1/act/Sigmoid_output_0: 3c011223
/model.22/m.0/m/m.0/cv1/conv/Conv_output_0: 3d5d953d
/model.23/cv3.1/cv3.1.1/cv3.1.1.1/act/Mul_output_0: 3cba18b6
/model.22/m.0/m/m.0/cv1/act/Sigmoid_output_0: 3bff5b7e
/model.23/cv3.1/cv3.1.2/Conv_output_0: 3daebe51
/model.22/m.0/m/m.0/cv1/act/Mul_output_0: 3c755c58
/model.23/Concat_1_output_0: 3db9b655
/model.22/m.0/m/m.0/cv2/conv/Conv_output_0: 3d2002a6
/model.23/Reshape_1_output_0: 3db9b655
/model.22/m.0/m/m.0/cv2/act/Sigmoid_output_0: 3c00673f
/model.22/m.0/m/m.0/cv2/act/Mul_output_0: 3cb243ef
/model.22/m.0/m/m.0/Add_output_0: 3d0ff28b
/model.23/Range_2_output_0: 3e9d4449
(Unnamed Layer* 493) [Shuffle]_output: 3c010a14
/model.23/Range_3_output_0: 3e9d4449
(Unnamed Layer* 502) [Shuffle]_output: 3c010a14
/model.22/m.0/m/m.1/cv1/conv/Conv_output_0: 3d440ca2
(Unnamed Layer* 505) [Shuffle]_output: 3b810a14
/model.23/Add_3_output_0: 3e9f4871
(Unnamed Layer* 507) [Shuffle]_output: 3b810a14
/model.23/Add_4_output_0: 3e9f4871
/model.22/m.0/m/m.1/cv1/act/Sigmoid_output_0: 3be585de
(Unnamed Layer* 511) [Constant]_output: 0
(Unnamed Layer* 512) [Shuffle]_output: 0
/model.23/ConstantOfShape_1_output_0: 0
/model.23/Reshape_10_output_0: 3e9f4871
/model.23/Reshape_11_output_0: 3e9f4871
/model.22/m.0/m/m.1/cv1/act/Mul_output_0: 3c1ef78b
(Unnamed Layer* 520) [Shuffle]_output: 3e010a14
/model.23/Add_5_output_0: 3e010a14
/model.22/m.0/m/m.1/cv2/conv/Conv_output_0: 3d42e69d
/model.23/Expand_2_output_0: 3e9f4871
/model.23/Expand_3_output_0: 3e9f4871
/model.22/m.0/m/m.1/cv2/act/Sigmoid_output_0: 3bff43f2
/model.23/Unsqueeze_6_output_0: 3e9f4871
/model.23/Unsqueeze_7_output_0: 3e9f4871
/model.22/m.0/m/m.1/cv2/act/Mul_output_0: 3d1220db
/model.23/Concat_15_output_0: 3e9f4871
/model.22/m.0/m/m.1/Add_output_0: 3d231ef7
/model.23/Reshape_12_output_0: 3e9f4871
/model.22/m.0/Concat_output_0: 3d27153a
/model.22/m.0/cv3/conv/Conv_output_0: 3d3bb6b9
/model.22/m.0/cv3/act/Sigmoid_output_0: 3c017d3c
/model.22/m.0/cv3/act/Mul_output_0: 3cc29453
/model.22/Concat_output_0: 3cc241ac
/model.22/cv2/conv/Conv_output_0: 3d66140a
/model.22/cv2/act/Sigmoid_output_0: 3c03f4d0
/model.22/cv2/act/Mul_output_0: 3c3fcc16
/model.23/cv2.2/cv2.2.0/conv/Conv_output_0: 3d76038d
/model.23/cv3.2/cv3.2.0/cv3.2.0.0/conv/Conv_output_0: 3cfad2cf
/model.23/cv2.2/cv2.2.0/act/Sigmoid_output_0: 3c013ec4
/model.23/cv3.2/cv3.2.0/cv3.2.0.0/act/Sigmoid_output_0: 3c030b72
/model.23/cv2.2/cv2.2.0/act/Mul_output_0: 3ca675db
/model.23/cv3.2/cv3.2.0/cv3.2.0.0/act/Mul_output_0: 3cb274f8
/model.23/cv2.2/cv2.2.1/conv/Conv_output_0: 3deee64b
/model.23/cv3.2/cv3.2.0/cv3.2.0.1/conv/Conv_output_0: 3d0bb5c3
/model.23/cv2.2/cv2.2.1/act/Sigmoid_output_0: 3c021417
/model.23/cv3.2/cv3.2.0/cv3.2.0.1/act/Sigmoid_output_0: 3c0043a3
/model.23/cv2.2/cv2.2.1/act/Mul_output_0: 3d906d03
/model.23/cv3.2/cv3.2.0/cv3.2.0.1/act/Mul_output_0: 3c746820
/model.23/cv2.2/cv2.2.2/Conv_output_0: 3da914c3
/model.23/cv3.2/cv3.2.1/cv3.2.1.0/conv/Conv_output_0: 3d2675fb
/model.23/cv3.2/cv3.2.1/cv3.2.1.0/act/Sigmoid_output_0: 3c020a81
/model.23/cv3.2/cv3.2.1/cv3.2.1.0/act/Mul_output_0: 3c887ab0
/model.23/cv3.2/cv3.2.1/cv3.2.1.1/conv/Conv_output_0: 3cee1f4e
/model.23/cv3.2/cv3.2.1/cv3.2.1.1/act/Sigmoid_output_0: 3bfdd0ff
/model.23/cv3.2/cv3.2.1/cv3.2.1.1/act/Mul_output_0: 3c5d390d
/model.23/cv3.2/cv3.2.2/Conv_output_0: 3d8425a6
/model.23/Concat_2_output_0: 3d8a5eb3
/model.23/Reshape_2_output_0: 3d8a5eb3
/model.23/Concat_6_output_0: 3de469b3
/model.23/Split_1_output_0: 3dea5c44
/model.23/Split_1_output_1: 3db4119b
/model.23/Range_4_output_0: 3e193bf8
(Unnamed Layer* 616) [Shuffle]_output: 3c010a14
/model.23/Range_5_output_0: 3e193bf8
(Unnamed Layer* 625) [Shuffle]_output: 3c010a14
/model.23/Sigmoid_output_0: 3ad2f59f
(Unnamed Layer* 629) [Shuffle]_output: 3b810a14
/model.23/Add_6_output_0: 3e1d4449
(Unnamed Layer* 631) [Shuffle]_output: 3b810a14
/model.23/Add_7_output_0: 3e1d4449
(Unnamed Layer* 636) [Constant]_output: 0
(Unnamed Layer* 637) [Shuffle]_output: 0
/model.23/ConstantOfShape_2_output_0: 0
/model.23/Reshape_15_output_0: 3e1d4449
/model.23/Reshape_16_output_0: 3e1d4449
(Unnamed Layer* 646) [Shuffle]_output: 3e810a14
/model.23/Add_8_output_0: 3e810a14
/model.23/Concat_23_output_0: 3e810a14
/model.23/dfl/Reshape_output_0: 3dea5c44
/model.23/Expand_4_output_0: 3e1d4449
/model.23/Expand_5_output_0: 3e1d4449
/model.23/Transpose_1_output_0: 3e810a14
/model.23/dfl/Transpose_output_0: 3dea5c44
/model.23/Unsqueeze_9_output_0: 3e1d4449
/model.23/Unsqueeze_10_output_0: 3e1d4449
(Unnamed Layer* 688) [Softmax]_output: 3bb6c764
/model.23/Concat_20_output_0: 3e1d4449
/model.23/dfl/conv/Conv_output_0: 3dc0a923
/model.23/Reshape_17_output_0: 3e1d4449
/model.23/dfl/Reshape_1_output_0: 3dc0a923
/model.23/Concat_22_output_0: 3f204a85
/model.23/Slice_output_0: 3dbb1cd6
/model.23/Slice_1_output_0: 3dc18af7
/model.23/Transpose_output_0: 3f204a85
/model.23/Unsqueeze_12_output_0: 3f204a85
/model.23/Sub_output_0: 3f2753cd
/model.23/Add_10_output_0: 3f260a45
/model.23/Add_11_output_0: 3fade2cf
/model.23/Sub_1_output_0: 3e33fffd
(Unnamed Layer* 761) [Shuffle]_output: 3c810a14
/model.23/Div_1_output_0: 3f2de2cf
/model.23/Concat_24_output_0: 3f2de2cf
(Unnamed Layer* 767) [Shuffle]_output: 3e810a14
/model.23/Mul_5_output_0: 40ac79b6
output0: 40ac79b6
