TRT-8502-EntropyCalibration2
images: 3bd7a8cc
/model.0/conv/Conv_output_0: 3daa0e9c
(Unnamed Layer* 1) [Constant]_output: 3e810a14
/model.23/Split_output_0: 3d810a14
/model.23/Split_output_1: 3e010a14
/model.23/Split_output_2: 3e810a14
/model.0/act/Sigmoid_output_0: 3c010a14
/model.0/act/Mul_output_0: 3d9e9bd6
/model.1/conv/Conv_output_0: 3ec3b2a1
/model.1/act/Sigmoid_output_0: 3c010a14
/model.1/act/Mul_output_0: 3e1b28fb
/model.2/cv1/conv/Conv_output_0: 3dfee813
/model.2/cv1/act/Sigmoid_output_0: 3c010a14
/model.2/cv1/act/Mul_output_0: 3d42a814
/model.2/Split_output_0: 3d2a6202
/model.2/Split_output_1: 3d20ec5c
/model.2/m.0/cv1/conv/Conv_output_0: 3d14b5fd
/model.2/m.0/cv2/conv/Conv_output_0: 3d9e6d2a
/model.2/m.0/cv1/act/Sigmoid_output_0: 3c05fb96
/model.2/m.0/cv2/act/Sigmoid_output_0: 3bf3460c
/model.2/m.0/cv1/act/Mul_output_0: 3c8f68c7
/model.2/m.0/cv2/act/Mul_output_0: 3c88ec8a
/model.2/m.0/m/m.0/cv1/conv/Conv_output_0: 3d4ec6f8
/model.2/m.0/m/m.0/cv1/act/Sigmoid_output_0: 3bff2e5d
/model.2/m.0/m/m.0/cv1/act/Mul_output_0: 3ceca63b
/model.2/m.0/m/m.0/cv2/conv/Conv_output_0: 3cfc2fbf
/model.2/m.0/m/m.0/cv2/act/Sigmoid_output_0: 3c0778b4
/model.2/m.0/m/m.0/cv2/act/Mul_output_0: 3cfe7410
/model.2/m.0/m/m.0/Add_output_0: 3d085c39
/model.2/m.0/m/m.1/cv1/conv/Conv_output_0: 3d2367da
/model.2/m.0/m/m.1/cv1/act/Sigmoid_output_0: 3bfee644
/model.2/m.0/m/m.1/cv1/act/Mul_output_0: 3cc1fd1b
/model.2/m.0/m/m.1/cv2/conv/Conv_output_0: 3d17a164
/model.2/m.0/m/m.1/cv2/act/Sigmoid_output_0: 3c097908
/model.2/m.0/m/m.1/cv2/act/Mul_output_0: 3d0f5bd5
/model.2/m.0/m/m.1/Add_output_0: 3d77deea
/model.2/m.0/Concat_output_0: 3d3d1f77
/model.2/m.0/cv3/conv/Conv_output_0: 3dd11c51
/model.2/m.0/cv3/act/Sigmoid_output_0: 3c013263
/model.2/m.0/cv3/act/Mul_output_0: 3d68deb4
/model.2/Concat_output_0: 3d42a814
/model.2/cv2/conv/Conv_output_0: 3dccecf5
/model.2/cv2/act/Sigmoid_output_0: 3c000ffe
/model.2/cv2/act/Mul_output_0: 3cc03ae4
/model.3/conv/Conv_output_0: 3d9c6a6f
/model.3/act/Sigmoid_output_0: 3c00d0ea
/model.3/act/Mul_output_0: 3cc2eb11
/model.4/cv1/conv/Conv_output_0: 3d73533e
/model.4/cv1/act/Sigmoid_output_0: 3c0923b7
/model.4/cv1/act/Mul_output_0: 3cc297f6
/model.4/Split_output_0: 3cc297f6
/model.4/Split_output_1: 3c80425c
/model.4/m.0/cv1/conv/Conv_output_0: 3d11fbce
/model.4/m.0/cv2/conv/Conv_output_0: 3d69bd3e
/model.4/m.0/cv1/act/Sigmoid_output_0: 3beeaefc
/model.4/m.0/cv2/act/Sigmoid_output_0: 3c035fee
/model.4/m.0/cv1/act/Mul_output_0: 3c5a3e5c
/model.4/m.0/cv2/act/Mul_output_0: 3cc333c6
/model.4/m.0/m/m.0/cv1/conv/Conv_output_0: 3d2c28ce
/model.4/m.0/m/m.0/cv1/act/Sigmoid_output_0: 3c02365d
/model.4/m.0/m/m.0/cv1/act/Mul_output_0: 3c9a0ade
/model.4/m.0/m/m.0/cv2/conv/Conv_output_0: 3d3f8c92
/model.4/m.0/m/m.0/cv2/act/Sigmoid_output_0: 3bfec623
/model.4/m.0/m/m.0/cv2/act/Mul_output_0: 3cc1e4b2
/model.4/m.0/m/m.0/Add_output_0: 3d190453
/model.4/m.0/m/m.1/cv1/conv/Conv_output_0: 3d65d5b5
/model.4/m.0/m/m.1/cv1/act/Sigmoid_output_0: 3c005a34
/model.4/m.0/m/m.1/cv1/act/Mul_output_0: 3c90f459
/model.4/m.0/m/m.1/cv2/conv/Conv_output_0: 3d9f73d5
/model.4/m.0/m/m.1/cv2/act/Sigmoid_output_0: 3c06ce87
/model.4/m.0/m/m.1/cv2/act/Mul_output_0: 3d235c0f
/model.4/m.0/m/m.1/Add_output_0: 3d8c289e
/model.4/m.0/Concat_output_0: 3d41511f
/model.4/m.0/cv3/conv/Conv_output_0: 3d9e1e9b
/model.4/m.0/cv3/act/Sigmoid_output_0: 3c10a3f8
/model.4/m.0/cv3/act/Mul_output_0: 3cb05aea
/model.4/Concat_output_0: 3cb05aea
/model.4/cv2/conv/Conv_output_0: 3d98e446
/model.4/cv2/act/Sigmoid_output_0: 3bffd8b7
/model.4/cv2/act/Mul_output_0: 3c8a71c1
/model.5/conv/Conv_output_0: 3d5f7561
/model.5/act/Sigmoid_output_0: 3c00571d
/model.5/act/Mul_output_0: 3c5149ca
/model.6/cv1/conv/Conv_output_0: 3d99702d
/model.6/cv1/act/Sigmoid_output_0: 3c0294b0
/model.6/cv1/act/Mul_output_0: 3ca6dfac
/model.6/Split_output_0: 3ca6dfac
/model.6/Split_output_1: 3ca43687
/model.6/m.0/cv1/conv/Conv_output_0: 3d159706
/model.6/m.0/cv2/conv/Conv_output_0: 3d95ddfd
/model.6/m.0/cv1/act/Sigmoid_output_0: 3bfe68a6
/model.6/m.0/cv2/act/Sigmoid_output_0: 3c05d93a
/model.6/m.0/cv1/act/Mul_output_0: 3c73172b
/model.6/m.0/cv2/act/Mul_output_0: 3cd1363e
/model.6/m.0/m/m.0/cv1/conv/Conv_output_0: 3d62b33c
/model.6/m.0/m/m.0/cv1/act/Sigmoid_output_0: 3c1091d3
/model.6/m.0/m/m.0/cv1/act/Mul_output_0: 3c9b01fa
/model.6/m.0/m/m.0/cv2/conv/Conv_output_0: 3d7c806f
/model.6/m.0/m/m.0/cv2/act/Sigmoid_output_0: 3c09283b
/model.6/m.0/m/m.0/cv2/act/Mul_output_0: 3cb2563a
/model.6/m.0/m/m.0/Add_output_0: 3d6498cf
/model.6/m.0/m/m.1/cv1/conv/Conv_output_0: 3db3c2a1
/model.6/m.0/m/m.1/cv1/act/Sigmoid_output_0: 3c051c4c
/model.6/m.0/m/m.1/cv1/act/Mul_output_0: 3c9afe77
/model.6/m.0/m/m.1/cv2/conv/Conv_output_0: 3ddbd9fe
/model.6/m.0/m/m.1/cv2/act/Sigmoid_output_0: 3c053a69
/model.6/m.0/m/m.1/cv2/act/Mul_output_0: 3d6fc78b
/model.6/m.0/m/m.1/Add_output_0: 3dbb72d9
/model.6/m.0/Concat_output_0: 3d6cca1b
/model.6/m.0/cv3/conv/Conv_output_0: 3daca3d6
/model.6/m.0/cv3/act/Sigmoid_output_0: 3c011cf1
/model.6/m.0/cv3/act/Mul_output_0: 3ca4b986
/model.6/Concat_output_0: 3d01cf69
/model.6/cv2/conv/Conv_output_0: 3dc701e0
/model.6/cv2/act/Sigmoid_output_0: 3c02d4ec
/model.6/cv2/act/Mul_output_0: 3ce35a32
/model.7/conv/Conv_output_0: 3d8ad47d
/model.7/act/Sigmoid_output_0: 3c053999
/model.7/act/Mul_output_0: 3c99c05e
/model.8/cv1/conv/Conv_output_0: 3dcc6850
/model.8/cv1/act/Sigmoid_output_0: 3c075eb6
/model.8/cv1/act/Mul_output_0: 3d12ae3f
/model.8/Split_output_0: 3d0ea3ae
/model.8/Split_output_1: 3cd19341
/model.8/m.0/cv1/conv/Conv_output_0: 3d8bc3b1
/model.8/m.0/cv2/conv/Conv_output_0: 3d934d42
/model.8/m.0/cv1/act/Sigmoid_output_0: 3c0111dd
/model.8/m.0/cv2/act/Sigmoid_output_0: 3c01117d
/model.8/m.0/cv1/act/Mul_output_0: 3d021a29
/model.8/m.0/cv2/act/Mul_output_0: 3d69deb8
/model.8/m.0/m/m.0/cv1/conv/Conv_output_0: 3da68e09
/model.8/m.0/m/m.0/cv1/act/Sigmoid_output_0: 3c062d9b
/model.8/m.0/m/m.0/cv1/act/Mul_output_0: 3cb145d3
/model.8/m.0/m/m.0/cv2/conv/Conv_output_0: 3db687c8
/model.8/m.0/m/m.0/cv2/act/Sigmoid_output_0: 3c087057
/model.8/m.0/m/m.0/cv2/act/Mul_output_0: 3d11989b
/model.8/m.0/m/m.0/Add_output_0: 3da2fef7
/model.8/m.0/m/m.1/cv1/conv/Conv_output_0: 3d9eec91
/model.8/m.0/m/m.1/cv1/act/Sigmoid_output_0: 3c03061e
/model.8/m.0/m/m.1/cv1/act/Mul_output_0: 3ce8ea36
/model.8/m.0/m/m.1/cv2/conv/Conv_output_0: 3de597f0
/model.8/m.0/m/m.1/cv2/act/Sigmoid_output_0: 3c0de3d2
/model.8/m.0/m/m.1/cv2/act/Mul_output_0: 3d8f34a6
/model.8/m.0/m/m.1/Add_output_0: 3df2a5fe
/model.8/m.0/Concat_output_0: 3dbcc6d2
/model.8/m.0/cv3/conv/Conv_output_0: 3db20143
/model.8/m.0/cv3/act/Sigmoid_output_0: 3c010bff
/model.8/m.0/cv3/act/Mul_output_0: 3d281d6d
/model.8/Concat_output_0: 3d140008
/model.8/cv2/conv/Conv_output_0: 3dc4e2ec
/model.8/cv2/act/Sigmoid_output_0: 3c041821
/model.8/cv2/act/Mul_output_0: 3d441fc1
/model.9/cv1/conv/Conv_output_0: 3dd433a7
/model.9/cv1/act/Sigmoid_output_0: 3c02141a
/model.9/cv1/act/Mul_output_0: 3dbc7ecc
/model.9/m/MaxPool_output_0: 3dbc7ecc
/model.9/m_1/MaxPool_output_0: 3dbc7ecc
/model.9/m_2/MaxPool_output_0: 3dbc7ecc
/model.9/Concat_output_0: 3e0488bb
/model.9/cv2/conv/Conv_output_0: 3d85762b
/model.9/cv2/act/Sigmoid_output_0: 3c007fbf
/model.9/cv2/act/Mul_output_0: 3ca48673
/model.10/cv1/conv/Conv_output_0: 3da21baf
/model.10/cv1/act/Sigmoid_output_0: 3c0ab273
/model.10/cv1/act/Mul_output_0: 3d00a2ad
/model.10/Split_output_0: 3ce520f3
/model.10/Split_output_1: 3d00a2ad
/model.10/m/m.0/attn/qkv/conv/Conv_output_0: 3d68f23f
/model.10/m/m.0/attn/Reshape_output_0: 3d68f23f
/model.10/m/m.0/attn/Split_output_0: 3d48bada
/model.10/m/m.0/attn/Split_output_1: 3d59555f
/model.10/m/m.0/attn/Split_output_2: 3d51cb16
/model.10/m/m.0/attn/Transpose_output_0: 3d48bada
/model.10/m/m.0/attn/Reshape_2_output_0: 3d51cb16
/model.10/m/m.0/attn/MatMul_output_0: 3f8f8441
/model.10/m/m.0/attn/pe/conv/Conv_output_0: 3d15fd52
(Unnamed Layer* 255) [Shuffle]_output: 3ab67d3d
/model.10/m/m.0/attn/Mul_1_output_0: 3e4af68f
(Unnamed Layer* 257) [Softmax]_output: 3a818f36
/model.10/m/m.0/attn/Transpose_1_output_0: 3a818f36
/model.10/m/m.0/attn/MatMul_1_output_0: 3d33b19c
/model.10/m/m.0/attn/Reshape_1_output_0: 3d33b19c
/model.10/m/m.0/attn/Add_output_0: 3d3f43e2
/model.10/m/m.0/attn/proj/conv/Conv_output_0: 3d253257
/model.10/m/m.0/Add_output_0: 3d89b5e1
/model.10/m/m.0/ffn/ffn.0/conv/Conv_output_0: 3d35ec1b
/model.10/m/m.0/ffn/ffn.0/act/Sigmoid_output_0: 3c009122
/model.10/m/m.0/ffn/ffn.0/act/Mul_output_0: 3ca487f4
/model.10/m/m.0/ffn/ffn.1/conv/Conv_output_0: 3d1b2e02
/model.10/m/m.0/Add_1_output_0: 3d927dbf
/model.10/Concat_output_0: 3d101081
/model.10/cv2/conv/Conv_output_0: 3d47eb2c
/model.10/cv2/act/Sigmoid_output_0: 3c0043fc
/model.10/cv2/act/Mul_output_0: 3c6765b6
/model.11/Resize_output_0: 3c6765b6
/model.12/Concat_output_0: 3ce60d06
/model.13/cv1/conv/Conv_output_0: 3d94b531
/model.13/cv1/act/Sigmoid_output_0: 3c01121f
/model.13/cv1/act/Mul_output_0: 3ca5dca6
/model.13/Split_output_0: 3cd34db4
/model.13/Split_output_1: 3c8c52ff
/model.13/m.0/cv1/conv/Conv_output_0: 3d91cf93
/model.13/m.0/cv2/conv/Conv_output_0: 3de20950
/model.13/m.0/cv1/act/Sigmoid_output_0: 3c057028
/model.13/m.0/cv2/act/Sigmoid_output_0: 3c021427
/model.13/m.0/cv1/act/Mul_output_0: 3c526e78
/model.13/m.0/cv2/act/Mul_output_0: 3ce6b13e
/model.13/m.0/m/m.0/cv1/conv/Conv_output_0: 3daf567d
/model.13/m.0/m/m.0/cv1/act/Sigmoid_output_0: 3c031602
/model.13/m.0/m/m.0/cv1/act/Mul_output_0: 3ceb6937
/model.13/m.0/m/m.0/cv2/conv/Conv_output_0: 3da3ef88
/model.13/m.0/m/m.0/cv2/act/Sigmoid_output_0: 3c0639e8
/model.13/m.0/m/m.0/cv2/act/Mul_output_0: 3d0f7b2c
/model.13/m.0/m/m.0/Add_output_0: 3d8edd78
/model.13/m.0/m/m.1/cv1/conv/Conv_output_0: 3d886cef
/model.13/m.0/m/m.1/cv1/act/Sigmoid_output_0: 3c02c608
/model.13/m.0/m/m.1/cv1/act/Mul_output_0: 3c810baf
/model.13/m.0/m/m.1/cv2/conv/Conv_output_0: 3df5ae6d
/model.13/m.0/m/m.1/cv2/act/Sigmoid_output_0: 3c020354
/model.13/m.0/m/m.1/cv2/act/Mul_output_0: 3d40862b
/model.13/m.0/m/m.1/Add_output_0: 3df3070f
/model.13/m.0/Concat_output_0: 3d65f116
/model.13/m.0/cv3/conv/Conv_output_0: 3dc31e7a
/model.13/m.0/cv3/act/Sigmoid_output_0: 3c0b426d
/model.13/m.0/cv3/act/Mul_output_0: 3cd4a9bb
/model.13/Concat_output_0: 3cd34db4
/model.13/cv2/conv/Conv_output_0: 3dadad7e
/model.13/cv2/act/Sigmoid_output_0: 3c010f68
/model.13/cv2/act/Mul_output_0: 3cb4da04
/model.14/Resize_output_0: 3cb4da04
/model.15/Concat_output_0: 3c928436
/model.16/cv1/conv/Conv_output_0: 3d8c26f7
/model.16/cv1/act/Sigmoid_output_0: 3c0165ec
/model.16/cv1/act/Mul_output_0: 3c7485d8
/model.16/Split_output_0: 3ca5b1b2
/model.16/Split_output_1: 3c3489ed
/model.16/m.0/cv1/conv/Conv_output_0: 3d0529fa
/model.16/m.0/cv2/conv/Conv_output_0: 3d984424
/model.16/m.0/cv1/act/Sigmoid_output_0: 3be8090e
/model.16/m.0/cv2/act/Sigmoid_output_0: 3c053122
/model.16/m.0/cv1/act/Mul_output_0: 3c03ff85
/model.16/m.0/cv2/act/Mul_output_0: 3d0085b0
/model.16/m.0/m/m.0/cv1/conv/Conv_output_0: 3d96147f
/model.16/m.0/m/m.0/cv1/act/Sigmoid_output_0: 3c0091b3
/model.16/m.0/m/m.0/cv1/act/Mul_output_0: 3c72fe2e
/model.16/m.0/m/m.0/cv2/conv/Conv_output_0: 3d718b6d
/model.16/m.0/m/m.0/cv2/act/Sigmoid_output_0: 3c009ee9
/model.16/m.0/m/m.0/cv2/act/Mul_output_0: 3cc448ee
/model.16/m.0/m/m.0/Add_output_0: 3d21df2e
/model.16/m.0/m/m.1/cv1/conv/Conv_output_0: 3d76478a
/model.16/m.0/m/m.1/cv1/act/Sigmoid_output_0: 3c00e5c0
/model.16/m.0/m/m.1/cv1/act/Mul_output_0: 3cc3428f
/model.16/m.0/m/m.1/cv2/conv/Conv_output_0: 3de12463
/model.16/m.0/m/m.1/cv2/act/Sigmoid_output_0: 3c075e96
/model.16/m.0/m/m.1/cv2/act/Mul_output_0: 3d6e3085
/model.16/m.0/m/m.1/Add_output_0: 3dd427c3
/model.16/m.0/Concat_output_0: 3d6f9fdc
/model.16/m.0/cv3/conv/Conv_output_0: 3d85d7d7
/model.16/m.0/cv3/act/Sigmoid_output_0: 3c00e934
/model.16/m.0/cv3/act/Mul_output_0: 3c9a4f7b
/model.16/Concat_output_0: 3c9a4f7b
/model.16/cv2/conv/Conv_output_0: 3d885443
/model.16/cv2/act/Sigmoid_output_0: 3c00baab
/model.16/cv2/act/Mul_output_0: 3c315a14
/model.17/conv/Conv_output_0: 3d8d7adb
/model.23/cv2.0/cv2.0.0/conv/Conv_output_0: 3db0d574
/model.23/cv3.0/cv3.0.0/cv3.0.0.0/conv/Conv_output_0: 3d21f180
/model.17/act/Sigmoid_output_0: 3c021200
/model.23/cv2.0/cv2.0.0/act/Sigmoid_output_0: 3c050d39
/model.23/cv3.0/cv3.0.0/cv3.0.0.0/act/Sigmoid_output_0: 3c01af4b
/model.17/act/Mul_output_0: 3cd451ec
/model.23/cv2.0/cv2.0.0/act/Mul_output_0: 3d025388
/model.23/cv3.0/cv3.0.0/cv3.0.0.0/act/Mul_output_0: 3cfb5066
/model.18/Concat_output_0: 3c917ed3
/model.23/cv2.0/cv2.0.1/conv/Conv_output_0: 3e536aad
/model.23/cv3.0/cv3.0.0/cv3.0.0.1/conv/Conv_output_0: 3d89bb4a
/model.19/cv1/conv/Conv_output_0: 3dbb64a8
/model.23/cv2.0/cv2.0.1/act/Sigmoid_output_0: 3c010a14
/model.23/cv3.0/cv3.0.0/cv3.0.0.1/act/Sigmoid_output_0: 3c02141f
/model.19/cv1/act/Sigmoid_output_0: 3c02141f
/model.23/cv2.0/cv2.0.1/act/Mul_output_0: 3e17bec9
/model.23/cv3.0/cv3.0.0/cv3.0.0.1/act/Mul_output_0: 3cd37f30
/model.19/cv1/act/Mul_output_0: 3cd3b2bd
/model.23/cv2.0/cv2.0.2/Conv_output_0: 3dc7bb43
/model.23/cv3.0/cv3.0.1/cv3.0.1.0/conv/Conv_output_0: 3d99e1d9
/model.19/Split_output_0: 3d02a974
/model.19/Split_output_1: 3cd3b2bd
/model.23/cv3.0/cv3.0.1/cv3.0.1.0/act/Sigmoid_output_0: 3c0274e9
/model.19/m.0/cv1/conv/Conv_output_0: 3d6a7200
/model.19/m.0/cv2/conv/Conv_output_0: 3dad337a
/model.23/cv3.0/cv3.0.1/cv3.0.1.0/act/Mul_output_0: 3d66176f
/model.19/m.0/cv1/act/Sigmoid_output_0: 3c012801
/model.19/m.0/cv2/act/Sigmoid_output_0: 3c01121e
/model.23/cv3.0/cv3.0.1/cv3.0.1.1/conv/Conv_output_0: 3e503e8f
/model.19/m.0/cv1/act/Mul_output_0: 3c51b41a
/model.19/m.0/cv2/act/Mul_output_0: 3d489876
/model.23/cv3.0/cv3.0.1/cv3.0.1.1/act/Sigmoid_output_0: 3c010a14
/model.19/m.0/m/m.0/cv1/conv/Conv_output_0: 3db01adc
/model.23/cv3.0/cv3.0.1/cv3.0.1.1/act/Mul_output_0: 3d72ec70
/model.19/m.0/m/m.0/cv1/act/Sigmoid_output_0: 3c053869
/model.23/cv3.0/cv3.0.2/Conv_output_0: 3e622e77
/model.19/m.0/m/m.0/cv1/act/Mul_output_0: 3cc262c6
/model.23/Concat_output_0: 3e3cf5d8
/model.19/m.0/m/m.0/cv2/conv/Conv_output_0: 3da4a087
/model.19/m.0/m/m.0/cv2/act/Sigmoid_output_0: 3c0213f5
/model.19/m.0/m/m.0/cv2/act/Mul_output_0: 3ca4b882
/model.19/m.0/m/m.0/Add_output_0: 3d66a14b
/model.23/Range_output_0: 3f1f4871
(Unnamed Layer* 433) [Shuffle]_output: 3c010a14
/model.23/Range_1_output_0: 3f1f4871
(Unnamed Layer* 442) [Shuffle]_output: 3c010a14
/model.19/m.0/m/m.1/cv1/conv/Conv_output_0: 3d75cae0
/model.23/Reshape_output_0: 3e3cf5d8
(Unnamed Layer* 447) [Shuffle]_output: 3b810a14
/model.23/Add_output_0: 3f204a85
(Unnamed Layer* 449) [Shuffle]_output: 3b810a14
/model.23/Add_1_output_0: 3f204a85
/model.19/m.0/m/m.1/cv1/act/Sigmoid_output_0: 3c0393e0
(Unnamed Layer* 454) [Constant]_output: 0
(Unnamed Layer* 455) [Shuffle]_output: 0
/model.23/ConstantOfShape_output_0: 0
/model.23/Reshape_5_output_0: 3f204a85
/model.23/Reshape_6_output_0: 3f204a85
/model.19/m.0/m/m.1/cv1/act/Mul_output_0: 3c17b4c4
(Unnamed Layer* 463) [Shuffle]_output: 3d810a14
/model.23/Add_2_output_0: 3d810a14
/model.19/m.0/m/m.1/cv2/conv/Conv_output_0: 3cff74ce
/model.23/Expand_output_0: 3f204a85
/model.23/Expand_1_output_0: 3f204a85
/model.19/m.0/m/m.1/cv2/act/Sigmoid_output_0: 3c01a975
/model.23/Unsqueeze_3_output_0: 3f204a85
/model.23/Unsqueeze_4_output_0: 3f204a85
/model.19/m.0/m/m.1/cv2/act/Mul_output_0: 3c1ef222
/model.23/Concat_10_output_0: 3f204a85
/model.19/m.0/m/m.1/Add_output_0: 3d8eea71
/model.23/Reshape_7_output_0: 3f204a85
/model.19/m.0/Concat_output_0: 3d668fd8
/model.19/m.0/cv3/conv/Conv_output_0: 3d396e79
/model.19/m.0/cv3/act/Sigmoid_output_0: 3c00b11e
/model.19/m.0/cv3/act/Mul_output_0: 3c88a28d
/model.19/Concat_output_0: 3cd3b2bd
/model.19/cv2/conv/Conv_output_0: 3da544f6
/model.19/cv2/act/Sigmoid_output_0: 3c010a14
/model.19/cv2/act/Mul_output_0: 3d6b5698
/model.20/conv/Conv_output_0: 3d785966
/model.23/cv2.1/cv2.1.0/conv/Conv_output_0: 3ddc5933
/model.23/cv3.1/cv3.1.0/cv3.1.0.0/conv/Conv_output_0: 3d1e5824
/model.20/act/Sigmoid_output_0: 3c0529a9
/model.23/cv2.1/cv2.1.0/act/Sigmoid_output_0: 3c063c74
/model.23/cv3.1/cv3.1.0/cv3.1.0.0/act/Sigmoid_output_0: 3c0111d7
/model.20/act/Mul_output_0: 3ce94657
/model.23/cv2.1/cv2.1.0/act/Mul_output_0: 3d24ea56
/model.23/cv3.1/cv3.1.0/cv3.1.0.0/act/Mul_output_0: 3cce6015
/model.21/Concat_output_0: 3cb3923b
/model.23/cv2.1/cv2.1.1/conv/Conv_output_0: 3e4872ab
/model.23/cv3.1/cv3.1.0/cv3.1.0.1/conv/Conv_output_0: 3daf05af
/model.22/cv1/conv/Conv_output_0: 3d73cfae
/model.23/cv2.1/cv2.1.1/act/Sigmoid_output_0: 3c010a14
/model.23/cv3.1/cv3.1.0/cv3.1.0.1/act/Sigmoid_output_0: 3c0880ca
/model.22/cv1/act/Sigmoid_output_0: 3c03f1de
/model.23/cv2.1/cv2.1.1/act/Mul_output_0: 3dc97048
/model.23/cv3.1/cv3.1.0/cv3.1.0.1/act/Mul_output_0: 3cb182b6
/model.22/cv1/act/Mul_output_0: 3d02761a
/model.23/cv2.1/cv2.1.2/Conv_output_0: 3ddb1882
/model.23/cv3.1/cv3.1.1/cv3.1.1.0/conv/Conv_output_0: 3db030e9
/model.22/Split_output_0: 3d02761a
/model.22/Split_output_1: 3ce9d5d4
/model.23/cv3.1/cv3.1.1/cv3.1.1.0/act/Sigmoid_output_0: 3c010a14
/model.22/m.0/cv1/conv/Conv_output_0: 3d173d61
/model.22/m.0/cv2/conv/Conv_output_0: 3d5f46e1
/model.23/cv3.1/cv3.1.1/cv3.1.1.0/act/Mul_output_0: 3d6bcdf8
/model.22/m.0/cv1/act/Sigmoid_output_0: 3c00d167
/model.22/m.0/cv2/act/Sigmoid_output_0: 3c01217b
/model.23/cv3.1/cv3.1.1/cv3.1.1.1/conv/Conv_output_0: 3e279f20
/model.22/m.0/cv1/act/Mul_output_0: 3ca4c306
/model.22/m.0/cv2/act/Mul_output_0: 3d23c393
/model.23/cv3.1/cv3.1.1/cv3.1.1.1/act/Sigmoid_output_0: 3c010a14
/model.22/m.0/m/m.0/cv1/conv/Conv_output_0: 3d30c8af
/model.23/cv3.1/cv3.1.1/cv3.1.1.1/act/Mul_output_0: 3d955655
/model.22/m.0/m/m.0/cv1/act/Sigmoid_output_0: 3c009d68
/model.23/cv3.1/cv3.1.2/Conv_output_0: 3e2a5cca
/model.22/m.0/m/m.0/cv1/act/Mul_output_0: 3c678bb5
/model.23/Concat_1_output_0: 3e19f3a7
/model.22/m.0/m/m.0/cv2/conv/Conv_output_0: 3d231143
/model.23/Reshape_1_output_0: 3e19f3a7
/model.22/m.0/m/m.0/cv2/act/Sigmoid_output_0: 3bfc8db1
/model.22/m.0/m/m.0/cv2/act/Mul_output_0: 3c5af2a3
/model.22/m.0/m/m.0/Add_output_0: 3d064b45
/model.23/Range_2_output_0: 3e9d4449
(Unnamed Layer* 578) [Shuffle]_output: 3c010a14
/model.23/Range_3_output_0: 3e9d4449
(Unnamed Layer* 587) [Shuffle]_output: 3c010a14
/model.22/m.0/m/m.1/cv1/conv/Conv_output_0: 3d435f09
(Unnamed Layer* 590) [Shuffle]_output: 3b810a14
/model.23/Add_3_output_0: 3e9f4871
(Unnamed Layer* 592) [Shuffle]_output: 3b810a14
/model.23/Add_4_output_0: 3e9f4871
/model.22/m.0/m/m.1/cv1/act/Sigmoid_output_0: 3c0c27ca
(Unnamed Layer* 596) [Constant]_output: 0
(Unnamed Layer* 597) [Shuffle]_output: 0
/model.23/ConstantOfShape_1_output_0: 0
/model.23/Reshape_10_output_0: 3e9f4871
/model.23/Reshape_11_output_0: 3e9f4871
/model.22/m.0/m/m.1/cv1/act/Mul_output_0: 3c666188
(Unnamed Layer* 605) [Shuffle]_output: 3e010a14
/model.23/Add_5_output_0: 3e010a14
/model.22/m.0/m/m.1/cv2/conv/Conv_output_0: 3d52c3ab
/model.23/Expand_2_output_0: 3e9f4871
/model.23/Expand_3_output_0: 3e9f4871
/model.22/m.0/m/m.1/cv2/act/Sigmoid_output_0: 3c009b7c
/model.23/Unsqueeze_6_output_0: 3e9f4871
/model.23/Unsqueeze_7_output_0: 3e9f4871
/model.22/m.0/m/m.1/cv2/act/Mul_output_0: 3ce6f934
/model.23/Concat_15_output_0: 3e9f4871
/model.22/m.0/m/m.1/Add_output_0: 3d3e79d4
/model.23/Reshape_12_output_0: 3e9f4871
/model.22/m.0/Concat_output_0: 3d3d0cd8
/model.22/m.0/cv3/conv/Conv_output_0: 3d68aa1d
/model.22/m.0/cv3/act/Sigmoid_output_0: 3c05a78a
/model.22/m.0/cv3/act/Mul_output_0: 3ca536e3
/model.22/Concat_output_0: 3cd58f4d
/model.22/cv2/conv/Conv_output_0: 3d94fddd
/model.22/cv2/act/Sigmoid_output_0: 3c021359
/model.22/cv2/act/Mul_output_0: 3c9a421c
/model.23/cv2.2/cv2.2.0/conv/Conv_output_0: 3da00c51
/model.23/cv3.2/cv3.2.0/cv3.2.0.0/conv/Conv_output_0: 3d01b216
/model.23/cv2.2/cv2.2.0/act/Sigmoid_output_0: 3c041500
/model.23/cv3.2/cv3.2.0/cv3.2.0.0/act/Sigmoid_output_0: 3c03a4cb
/model.23/cv2.2/cv2.2.0/act/Mul_output_0: 3cbf3171
/model.23/cv3.2/cv3.2.0/cv3.2.0.0/act/Mul_output_0: 3cb09018
/model.23/cv2.2/cv2.2.1/conv/Conv_output_0: 3e5875f7
/model.23/cv3.2/cv3.2.0/cv3.2.0.1/conv/Conv_output_0: 3cd9c015
/model.23/cv2.2/cv2.2.1/act/Sigmoid_output_0: 3c010a14
/model.23/cv3.2/cv3.2.0/cv3.2.0.1/act/Sigmoid_output_0: 3bf075e2
/model.23/cv2.2/cv2.2.1/act/Mul_output_0: 3dc8f221
/model.23/cv3.2/cv3.2.0/cv3.2.0.1/act/Mul_output_0: 3c90004a
/model.23/cv2.2/cv2.2.2/Conv_output_0: 3dead9fd
/model.23/cv3.2/cv3.2.1/cv3.2.1.0/conv/Conv_output_0: 3d0021f9
/model.23/cv3.2/cv3.2.1/cv3.2.1.0/act/Sigmoid_output_0: 3c0e19b5
/model.23/cv3.2/cv3.2.1/cv3.2.1.0/act/Mul_output_0: 3ce8074d
/model.23/cv3.2/cv3.2.1/cv3.2.1.1/conv/Conv_output_0: 3d693935
/model.23/cv3.2/cv3.2.1/cv3.2.1.1/act/Sigmoid_output_0: 3c008ae8
/model.23/cv3.2/cv3.2.1/cv3.2.1.1/act/Mul_output_0: 3d25ed73
/model.23/cv3.2/cv3.2.2/Conv_output_0: 3df5cf47
/model.23/Concat_2_output_0: 3df0f389
/model.23/Reshape_2_output_0: 3df0f389
/model.23/Concat_6_output_0: 3e4701fd
/model.23/Split_1_output_0: 3dd32da5
/model.23/Split_1_output_1: 3e622e77
/model.23/Range_4_output_0: 3e193bf8
(Unnamed Layer* 701) [Shuffle]_output: 3c010a14
/model.23/Range_5_output_0: 3e193bf8
(Unnamed Layer* 710) [Shuffle]_output: 3c010a14
/model.23/Sigmoid_output_0: 3be0b44a
(Unnamed Layer* 714) [Shuffle]_output: 3b810a14
/model.23/Add_6_output_0: 3e1d4449
(Unnamed Layer* 716) [Shuffle]_output: 3b810a14
/model.23/Add_7_output_0: 3e1d4449
(Unnamed Layer* 721) [Constant]_output: 0
(Unnamed Layer* 722) [Shuffle]_output: 0
/model.23/ConstantOfShape_2_output_0: 0
/model.23/Reshape_15_output_0: 3e1d4449
/model.23/Reshape_16_output_0: 3e1d4449
(Unnamed Layer* 731) [Shuffle]_output: 3e810a14
/model.23/Add_8_output_0: 3e810a14
/model.23/Concat_23_output_0: 3e810a14
/model.23/dfl/Reshape_output_0: 3dd32da5
/model.23/Expand_4_output_0: 3e1d4449
/model.23/Expand_5_output_0: 3e1d4449
/model.23/Transpose_1_output_0: 3e810a14
/model.23/dfl/Transpose_output_0: 3dd32da5
/model.23/Unsqueeze_9_output_0: 3e1d4449
/model.23/Unsqueeze_10_output_0: 3e1d4449
(Unnamed Layer* 773) [Softmax]_output: 3bdd2ee5
/model.23/Concat_20_output_0: 3e1d4449
/model.23/dfl/conv/Conv_output_0: 3da65ac9
/model.23/Reshape_17_output_0: 3e1d4449
/model.23/dfl/Reshape_1_output_0: 3da65ac9
/model.23/Concat_22_output_0: 3f204a85
/model.23/Slice_output_0: 3da65ac9
/model.23/Slice_1_output_0: 3da98491
/model.23/Transpose_output_0: 3f204a85
/model.23/Unsqueeze_12_output_0: 3f204a85
/model.23/Sub_output_0: 3f1e5df1
/model.23/Add_10_output_0: 3f2c9515
/model.23/Add_11_output_0: 3f9fe8c4
/model.23/Sub_1_output_0: 3e257801
(Unnamed Layer* 846) [Shuffle]_output: 3c810a14
/model.23/Div_1_output_0: 3f1fe8c4
/model.23/Concat_24_output_0: 3f1fe8c4
(Unnamed Layer* 852) [Shuffle]_output: 3e810a14
/model.23/Mul_5_output_0: 40a1290d
output0: 40a1290d
